{
  "version": "1.0",
  "truncation": null,
  "padding": null,
  "added_tokens": [
    {
      "id": 0,
      "content": "[UNK]",
      "single_word": false,
      "lstrip": false,
      "rstrip": false,
      "normalized": false,
      "special": true
    },
    {
      "id": 1,
      "content": "[PAD]",
      "single_word": false,
      "lstrip": false,
      "rstrip": false,
      "normalized": false,
      "special": true
    }
  ],
  "normalizer": null,
  "pre_tokenizer": {
    "type": "Whitespace"
  },
  "post_processor": null,
  "decoder": null,
  "model": {
    "type": "WordPiece",
    "unk_token": "[UNK]",
    "continuing_subword_prefix": "##",
    "max_input_chars_per_word": 100,
    "vocab": {
      "[UNK]": 0,
      "[PAD]": 1,
      "!": 2,
      "$": 3,
      "&": 4,
      "'": 5,
      ",": 6,
      "-": 7,
      ".": 8,
      "3": 9,
      ":": 10,
      ";": 11,
      "?": 12,
      "A": 13,
      "B": 14,
      "C": 15,
      "D": 16,
      "E": 17,
      "F": 18,
      "G": 19,
      "H": 20,
      "I": 21,
      "J": 22,
      "K": 23,
      "L": 24,
      "M": 25,
      "N": 26,
      "O": 27,
      "P": 28,
      "Q": 29,
      "R": 30,
      "S": 31,
      "T": 32,
      "U": 33,
      "V": 34,
      "W": 35,
      "X": 36,
      "Y": 37,
      "Z": 38,
      "a": 39,
      "b": 40,
      "c": 41,
      "d": 42,
      "e": 43,
      "f": 44,
      "g": 45,
      "h": 46,
      "i": 47,
      "j": 48,
      "k": 49,
      "l": 50,
      "m": 51,
      "n": 52,
      "o": 53,
      "p": 54,
      "q": 55,
      "r": 56,
      "s": 57,
      "t": 58,
      "u": 59,
      "v": 60,
      "w": 61,
      "x": 62,
      "y": 63,
      "z": 64,
      "##r": 65,
      "##e": 66,
      "##c": 67,
      "##p": 68,
      "##t": 69,
      "##s": 70,
      "##i": 71,
      "##o": 72,
      "##n": 73,
      "##f": 74,
      "##u": 75,
      "##h": 76,
      "##d": 77,
      "##l": 78,
      "##y": 79,
      "##m": 80,
      "##k": 81,
      "##a": 82,
      "##q": 83,
      "##v": 84,
      "##g": 85,
      "##A": 86,
      "##G": 87,
      "##O": 88,
      "##T": 89,
      "##w": 90,
      "##x": 91,
      "##b": 92,
      "##-": 93,
      "##j": 94,
      "##N": 95,
      "##Z": 96,
      "##L": 97,
      "##M": 98,
      "##I": 99,
      "##U": 100,
      "##S": 101,
      "##E": 102,
      "##V": 103,
      "##R": 104,
      "##P": 105,
      "##W": 106,
      "##C": 107,
      "##Y": 108,
      "##z": 109,
      "##K": 110,
      "##H": 111,
      "##F": 112,
      "##B": 113,
      "##'": 114,
      "##D": 115,
      "##?": 116,
      "##X": 117,
      "##!": 118,
      "##:": 119,
      "##,": 120,
      "##;": 121,
      "th": 122,
      "##ou": 123,
      "##er": 124,
      "##nd": 125,
      "the": 126,
      "##or": 127,
      "##at": 128,
      "##in": 129,
      "##es": 130,
      "##ar": 131,
      "##en": 132,
      "##ll": 133,
      "##is": 134,
      "##th": 135,
      "to": 136,
      "you": 137,
      "##on": 138,
      "##an": 139,
      "and": 140,
      "##ve": 141,
      "##ow": 142,
      "##ing": 143,
      "of": 144,
      "##om": 145,
      "##re": 146,
      "##st": 147,
      "be": 148,
      "wi": 149,
      "##ed": 150,
      "no": 151,
      "Th": 152,
      "my": 153,
      "##se": 154,
      "in": 155,
      "he": 156,
      "##ce": 157,
      "##ay": 158,
      "ha": 159,
      "##ut": 160,
      "##le": 161,
      "##ir": 162,
      "##ch": 163,
      "##ld": 164,
      "##ere": 165,
      "sh": 166,
      "##et": 167,
      "wh": 168,
      "me": 169,
      "##ur": 170,
      "that": 171,
      "##im": 172,
      "for": 173,
      "is": 174,
      "##gh": 175,
      "not": 176,
      "##it": 177,
      "##oo": 178,
      "And": 179,
      "Wh": 180,
      "with": 181,
      "st": 182,
      "##ke": 183,
      "it": 184,
      "your": 185,
      "##ea": 186,
      "##ent": 187,
      "##ath": 188,
      "thou": 189,
      "##ome": 190,
      "his": 191,
      "we": 192,
      "##all": 193,
      "##id": 194,
      "##ght": 195,
      "##EN": 196,
      "have": 197,
      "pr": 198,
      "li": 199,
      "him": 200,
      "##IN": 201,
      "##ly": 202,
      "##ord": 203,
      "##ad": 204,
      "this": 205,
      "##al": 206,
      "##IO": 207,
      "##as": 208,
      "so": 209,
      "as": 210,
      "##est": 211,
      "on": 212,
      "##am": 213,
      "##ess": 214,
      "do": 215,
      "##ri": 216,
      "##ain": 217,
      "##ee": 218,
      "##ould": 219,
      "##ood": 220,
      "##AR": 221,
      "##ore": 222,
      "##our": 223,
      "##ck": 224,
      "##ther": 225,
      "thy": 226,
      "de": 227,
      "will": 228,
      "The": 229,
      "##ra": 230,
      "##ard": 231,
      "##us": 232,
      "##ge": 233,
      "but": 234,
      "##US": 235,
      "##ver": 236,
      "##ter": 237,
      "all": 238,
      "##ake": 239,
      "su": 240,
      "##ro": 241,
      "##and": 242,
      "her": 243,
      "##ion": 244,
      "To": 245,
      "an": 246,
      "##ear": 247,
      "lo": 248,
      "re": 249,
      "sp": 250,
      "##ell": 251,
      "##ich": 252,
      "thee": 253,
      "shall": 254,
      "##ue": 255,
      "by": 256,
      "our": 257,
      "##ight": 258,
      "ch": 259,
      "##ast": 260,
      "##UC": 261,
      "##ill": 262,
      "are": 263,
      "##il": 264,
      "ne": 265,
      "##ING": 266,
      "kn": 267,
      "##ust": 268,
      "That": 269,
      "fr": 270,
      "##ER": 271,
      "##ous": 272,
      "##OR": 273,
      "##ct": 274,
      "##fe": 275,
      "what": 276,
      "##ot": 277,
      "##ul": 278,
      "##ant": 279,
      "up": 280,
      "##ET": 281,
      "good": 282,
      "##sel": 283,
      "But": 284,
      "##nt": 285,
      "lord": 286,
      "com": 287,
      "man": 288,
      "##ine": 289,
      "at": 290,
      "ll": 291,
      "##art": 292,
      "##end": 293,
      "##one": 294,
      "con": 295,
      "What": 296,
      "##own": 297,
      "fa": 298,
      "##ence": 299,
      "am": 300,
      "##ie": 301,
      "mo": 302,
      "##ES": 303,
      "bl": 304,
      "##ry": 305,
      "##ate": 306,
      "from": 307,
      "##ble": 308,
      "##ol": 309,
      "##ven": 310,
      "go": 311,
      "##ive": 312,
      "##ers": 313,
      "For": 314,
      "more": 315,
      "them": 316,
      "was": 317,
      "##IC": 318,
      "if": 319,
      "sir": 320,
      "##ame": 321,
      "now": 322,
      "she": 323,
      "##au": 324,
      "bo": 325,
      "there": 326,
      "would": 327,
      "##AN": 328,
      "or": 329,
      "can": 330,
      "##LO": 331,
      "tr": 332,
      "##IUS": 333,
      "sw": 334,
      "##self": 335,
      "KING": 336,
      "say": 337,
      "##ARD": 338,
      "love": 339,
      "here": 340,
      "us": 341,
      "their": 342,
      "see": 343,
      "##ish": 344,
      "My": 345,
      "##pp": 346,
      "than": 347,
      "##ond": 348,
      "##ather": 349,
      "they": 350,
      "king": 351,
      "##ic": 352,
      "##um": 353,
      "then": 354,
      "know": 355,
      "ar": 356,
      "let": 357,
      "un": 358,
      "##un": 359,
      "##ith": 360,
      "##ind": 361,
      "wor": 362,
      "##ose": 363,
      "Go": 364,
      "##op": 365,
      "##ong": 366,
      "en": 367,
      "##ink": 368,
      "may": 369,
      "come": 370,
      "##ure": 371,
      "As": 372,
      "well": 373,
      "##fore": 374,
      "##ort": 375,
      "##ook": 376,
      "##em": 377,
      "##LI": 378,
      "##ig": 379,
      "##KE": 380,
      "##ves": 381,
      "one": 382,
      "hath": 383,
      "##eak": 384,
      "##irst": 385,
      "make": 386,
      "You": 387,
      "like": 388,
      "must": 389,
      "pl": 390,
      "##ound": 391,
      "were": 392,
      "gra": 393,
      "##row": 394,
      "should": 395,
      "##ci": 396,
      "ag": 397,
      "##are": 398,
      "Sh": 399,
      "mad": 400,
      "po": 401,
      "##ng": 402,
      "He": 403,
      "sa": 404,
      "##TIO": 405,
      "##ity": 406,
      "had": 407,
      "did": 408,
      "too": 409,
      "##ime": 410,
      "##ead": 411,
      "upon": 412,
      "##OM": 413,
      "father": 414,
      "##ak": 415,
      "##ec": 416,
      "##reat": 417,
      "##ON": 418,
      "##ful": 419,
      "##ice": 420,
      "some": 421,
      "##ap": 422,
      "dis": 423,
      "which": 424,
      "death": 425,
      "##ward": 426,
      "tw": 427,
      "If": 428,
      "bro": 429,
      "##ance": 430,
      "out": 431,
      "##ep": 432,
      "##el": 433,
      "heart": 434,
      "speak": 435,
      "how": 436,
      "##io": 437,
      "##ff": 438,
      "fri": 439,
      "##entle": 440,
      "##old": 441,
      "##ICH": 442,
      "again": 443,
      "RICH": 444,
      "day": 445,
      "##OL": 446,
      "DU": 447,
      "DUKE": 448,
      "##uch": 449,
      "hand": 450,
      "pro": 451,
      "yet": 452,
      "With": 453,
      "##ick": 454,
      "br": 455,
      "##man": 456,
      "Thou": 457,
      "##ies": 458,
      "RICHARD": 459,
      "mar": 460,
      "##ENTIO": 461,
      "when": 462,
      "hon": 463,
      "Which": 464,
      "In": 465,
      "##ack": 466,
      "son": 467,
      "mine": 468,
      "time": 469,
      "al": 470,
      "God": 471,
      "##ist": 472,
      "##INC": 473,
      "##ince": 474,
      "##age": 475,
      "##orn": 476,
      "Why": 477,
      "##wn": 478,
      "##ire": 479,
      "##ery": 480,
      "##oy": 481,
      "##EL": 482,
      "hear": 483,
      "such": 484,
      "First": 485,
      "No": 486,
      "##ost": 487,
      "blood": 488,
      "##ness": 489,
      "brother": 490,
      "Cl": 491,
      "##--": 492,
      "these": 493,
      "off": 494,
      "hea": 495,
      "##ign": 496,
      "ab": 497,
      "ex": 498,
      "##ag": 499,
      "give": 500,
      "##UE": 501,
      "So": 502,
      "Is": 503,
      "ear": 504,
      "##eep": 505,
      "bre": 506,
      "ey": 507,
      "fl": 508,
      "look": 509,
      "How": 510,
      "ever": 511,
      "think": 512,
      "##ide": 513,
      "II": 514,
      "tell": 515,
      "##ise": 516,
      "life": 517,
      "Of": 518,
      "qu": 519,
      "take": 520,
      "word": 521,
      "##TER": 522,
      "This": 523,
      "where": 524,
      "##AB": 525,
      "##UCH": 526,
      "##oul": 527,
      "friend": 528,
      "Come": 529,
      "des": 530,
      "GLO": 531,
      "##ither": 532,
      "##UCES": 533,
      "GLOUCES": 534,
      "GLOUCESTER": 535,
      "gentle": 536,
      "##erv": 537,
      "Lord": 538,
      "##ings": 539,
      "##ave": 540,
      "##ft": 541,
      "lea": 542,
      "Rome": 543,
      "##RY": 544,
      "##eet": 545,
      "QUE": 546,
      "VINC": 547,
      "war": 548,
      "art": 549,
      "honour": 550,
      "QUEEN": 551,
      "VINCENTIO": 552,
      "Mar": 553,
      "OF": 554,
      "##way": 555,
      "We": 556,
      "much": 557,
      "##ile": 558,
      "most": 559,
      "made": 560,
      "Where": 561,
      "fair": 562,
      "##UM": 563,
      "##ang": 564,
      "sl": 565,
      "##LAN": 566,
      "##ase": 567,
      "##AM": 568,
      "##urn": 569,
      "fear": 570,
      "hast": 571,
      "Now": 572,
      "tis": 573,
      "##iz": 574,
      "##igh": 575,
      "Be": 576,
      "##pt": 577,
      "##out": 578,
      "bet": 579,
      "se": 580,
      "##aught": 581,
      "HEN": 582,
      "cou": 583,
      "HENRY": 584,
      "cr": 585,
      "great": 586,
      "--": 587,
      "er": 588,
      "##qu": 589,
      "##ber": 590,
      "str": 591,
      "never": 592,
      "men": 593,
      "night": 594,
      "##ved": 595,
      "new": 596,
      "##ild": 597,
      "cl": 598,
      "##cc": 599,
      "##ower": 600,
      "AN": 601,
      "It": 602,
      "Your": 603,
      "##not": 604,
      "##orrow": 605,
      "##aster": 606,
      "##uke": 607,
      "##urse": 608,
      "part": 609,
      "YOR": 610,
      "##ough": 611,
      "YORK": 612,
      "call": 613,
      "any": 614,
      "ad": 615,
      "##ree": 616,
      "Or": 617,
      "fo": 618,
      "##ss": 619,
      "##ation": 620,
      "##thing": 621,
      "stand": 622,
      "##INIUS": 623,
      "comm": 624,
      "##der": 625,
      "##ST": 626,
      "cannot": 627,
      "name": 628,
      "##ect": 629,
      "##itt": 630,
      "pray": 631,
      "true": 632,
      "heaven": 633,
      "PET": 634,
      "per": 635,
      "##ip": 636,
      "##AU": 637,
      "been": 638,
      "sweet": 639,
      "##ment": 640,
      "who": 641,
      "##ady": 642,
      "ED": 643,
      "##WARD": 644,
      "EDWARD": 645,
      "GR": 646,
      "wr": 647,
      ",--": 648,
      "pre": 649,
      "sc": 650,
      "head": 651,
      "doth": 652,
      "##ears": 653,
      "ple": 654,
      "noble": 655,
      "##ass": 656,
      "own": 657,
      "##aw": 658,
      "LUC": 659,
      "##econd": 660,
      "Ay": 661,
      "done": 662,
      "##ull": 663,
      "There": 664,
      "nor": 665,
      "other": 666,
      "way": 667,
      "##ouse": 668,
      "bear": 669,
      "mean": 670,
      "##ueen": 671,
      "##RO": 672,
      "##eed": 673,
      "##aint": 674,
      "Ed": 675,
      "##UT": 676,
      "When": 677,
      "An": 678,
      "MEN": 679,
      "ROM": 680,
      "soul": 681,
      "very": 682,
      "##AP": 683,
      "##EO": 684,
      "before": 685,
      "##alt": 686,
      "Edward": 687,
      "ROMEO": 688,
      "By": 689,
      "##ud": 690,
      "##ving": 691,
      "##ENIUS": 692,
      "both": 693,
      "world": 694,
      "MENENIUS": 695,
      "queen": 696,
      "##ab": 697,
      "Let": 698,
      "app": 699,
      "gr": 700,
      "##TH": 701,
      "Then": 702,
      "##rie": 703,
      "cont": 704,
      "##aughter": 705,
      "Here": 706,
      "dead": 707,
      "##RUCH": 708,
      "PETRUCH": 709,
      "PETRUCHIO": 710,
      "down": 711,
      "##less": 712,
      "##able": 713,
      "##ause": 714,
      "##TES": 715,
      "##ite": 716,
      "Fr": 717,
      "being": 718,
      "Than": 719,
      "Who": 720,
      "##eal": 721,
      "rep": 722,
      "rem": 723,
      "##li": 724,
      "myself": 725,
      "MAR": 726,
      "pres": 727,
      "arm": 728,
      "ma": 729,
      "thus": 730,
      "beg": 731,
      "COR": 732,
      "##atch": 733,
      "##IOLAN": 734,
      "leave": 735,
      "CORIOLAN": 736,
      "CORIOLANUS": 737,
      "Nor": 738,
      "Second": 739,
      "house": 740,
      "##uck": 741,
      "le": 742,
      "##ress": 743,
      "##os": 744,
      "eyes": 745,
      "LE": 746,
      "im": 747,
      "long": 748,
      "old": 749,
      "unt": 750,
      "##ace": 751,
      "##ction": 752,
      "mother": 753,
      "Rich": 754,
      "##ens": 755,
      "##sh": 756,
      "##land": 757,
      "##INA": 758,
      "grace": 759,
      "poor": 760,
      "wife": 761,
      "##itiz": 762,
      "child": 763,
      "foo": 764,
      "wom": 765,
      "live": 766,
      "##ock": 767,
      "af": 768,
      "cons": 769,
      "away": 770,
      "int": 771,
      "III": 772,
      "Sir": 773,
      "might": 774,
      "##ied": 775,
      "##atter": 776,
      "##anc": 777,
      "die": 778,
      "##nder": 779,
      "War": 780,
      "stay": 781,
      "##eace": 782,
      "lie": 783,
      "comes": 784,
      "ho": 785,
      "##sw": 786,
      "##wick": 787,
      "many": 788,
      "rest": 789,
      "friends": 790,
      "crown": 791,
      "Warwick": 792,
      "On": 793,
      "cour": 794,
      "##ks": 795,
      "His": 796,
      "Tis": 797,
      "##come": 798,
      "##ious": 799,
      "##oud": 800,
      "##ison": 801,
      "thought": 802,
      "IS": 803,
      "mer": 804,
      "##LA": 805,
      "comp": 806,
      "##ELLA": 807,
      "##ABELLA": 808,
      "ISABELLA": 809,
      "St": 810,
      "daughter": 811,
      "##iss": 812,
      "##ows": 813,
      "Romeo": 814,
      "Well": 815,
      "hop": 816,
      "pe": 817,
      "set": 818,
      "##RAN": 819,
      "tong": 820,
      "gone": 821,
      "nothing": 822,
      "better": 823,
      "Do": 824,
      "JU": 825,
      "dr": 826,
      "res": 827,
      "##LIET": 828,
      "##ONTES": 829,
      "LEONTES": 830,
      "JULIET": 831,
      "Nay": 832,
      "VI": 833,
      "keep": 834,
      "##per": 835,
      "##urder": 836,
      "prince": 837,
      "##ittle": 838,
      "##ors": 839,
      "LA": 840,
      "tri": 841,
      "##ty": 842,
      "##DY": 843,
      "dear": 844,
      "LADY": 845,
      "Pro": 846,
      "##AL": 847,
      "##CE": 848,
      "##ENCE": 849,
      "sle": 850,
      "##ts": 851,
      "##well": 852,
      "##ield": 853,
      "news": 854,
      "Citiz": 855,
      "best": 856,
      "against": 857,
      "Serv": 858,
      "##iv": 859,
      "##les": 860,
      "those": 861,
      "SIC": 862,
      "acc": 863,
      "hour": 864,
      "hence": 865,
      "little": 866,
      "SICINIUS": 867,
      "Not": 868,
      "el": 869,
      "kind": 870,
      "thing": 871,
      "##ought": 872,
      "end": 873,
      "far": 874,
      "put": 875,
      "##ail": 876,
      "##eng": 877,
      "##ardon": 878,
      "##une": 879,
      "##akes": 880,
      "pur": 881,
      "##ach": 882,
      "foll": 883,
      "grie": 884,
      "##ew": 885,
      "##EY": 886,
      "young": 887,
      "still": 888,
      "two": 889,
      "thr": 890,
      "##ark": 891,
      "##ange": 892,
      "himself": 893,
      "power": 894,
      "##ier": 895,
      "##ale": 896,
      "##ork": 897,
      "Thy": 898,
      "##alk": 899,
      "face": 900,
      "LUCIO": 901,
      "IV": 902,
      "high": 903,
      "##eas": 904,
      "Richard": 905,
      "CL": 906,
      "Have": 907,
      "back": 908,
      "fell": 909,
      "gu": 910,
      "gl": 911,
      "peace": 912,
      "##ont": 913,
      "sub": 914,
      "char": 915,
      "therefore": 916,
      "count": 917,
      "Will": 918,
      "ban": 919,
      "first": 920,
      "##TI": 921,
      "##iness": 922,
      "though": 923,
      "conf": 924,
      "##cious": 925,
      "unto": 926,
      "tongue": 927,
      "else": 928,
      "BR": 929,
      "York": 930,
      "could": 931,
      "duke": 932,
      "sm": 933,
      "till": 934,
      "##red": 935,
      "##eech": 936,
      "words": 937,
      "hus": 938,
      "##lp": 939,
      "##uty": 940,
      "need": 941,
      "seem": 942,
      "earth": 943,
      "ELI": 944,
      "bid": 945,
      "find": 946,
      "lady": 947,
      "##ius": 948,
      "##ZAB": 949,
      "thine": 950,
      "##ret": 951,
      "forth": 952,
      "##ETH": 953,
      "ELIZAB": 954,
      "ELIZABETH": 955,
      "Good": 956,
      "dre": 957,
      "tre": 958,
      "##band": 959,
      "home": 960,
      "law": 961,
      "##IAN": 962,
      "##orse": 963,
      "hope": 964,
      "Hen": 965,
      "Yet": 966,
      "mind": 967,
      "##eel": 968,
      "##ople": 969,
      "husband": 970,
      "Henry": 971,
      "All": 972,
      "right": 973,
      "##her": 974,
      "beh": 975,
      "##arewell": 976,
      "breath": 977,
      "##cl": 978,
      "##ix": 979,
      "##for": 980,
      "WAR": 981,
      "##uth": 982,
      "##men": 983,
      "##WIC": 984,
      "Shall": 985,
      "WARWIC": 986,
      "WARWICK": 987,
      "em": 988,
      "master": 989,
      "##AST": 990,
      "##oub": 991,
      "##ister": 992,
      "show": 993,
      "why": 994,
      "##ousin": 995,
      "bod": 996,
      "people": 997,
      "Citizen": 998,
      "Nurse": 999,
      "serv": 1000,
      "##ces": 1001,
      "##ds": 1002,
      "##led": 1003,
      "once": 1004,
      "She": 1005,
      "hands": 1006,
      "joy": 1007,
      "none": 1008,
      "##fort": 1009,
      "##HAM": 1010,
      "##int": 1011,
      "They": 1012,
      "lords": 1013,
      "imp": 1014,
      "CAP": 1015,
      "ind": 1016,
      "mist": 1017,
      "tra": 1018,
      "##LET": 1019,
      "##ULET": 1020,
      "##ans": 1021,
      "place": 1022,
      "said": 1023,
      "CAPULET": 1024,
      "pardon": 1025,
      "fort": 1026,
      "bring": 1027,
      "every": 1028,
      "##ced": 1029,
      "##lo": 1030,
      "##GE": 1031,
      "##MIO": 1032,
      "##IL": 1033,
      "##ates": 1034,
      "bes": 1035,
      "cause": 1036,
      "pass": 1037,
      "roy": 1038,
      "##lt": 1039,
      "##RI": 1040,
      "banish": 1041,
      "BUC": 1042,
      "co": 1043,
      "##cy": 1044,
      "##air": 1045,
      "##KING": 1046,
      "##ary": 1047,
      "light": 1048,
      "##ried": 1049,
      "##UTUS": 1050,
      "BRUTUS": 1051,
      "BUCKING": 1052,
      "BUCKINGHAM": 1053,
      "BOL": 1054,
      "TRAN": 1055,
      "wo": 1056,
      "##iet": 1057,
      "##BRO": 1058,
      "##ird": 1059,
      "##INGBRO": 1060,
      "##ESS": 1061,
      "boy": 1062,
      "From": 1063,
      "##swer": 1064,
      "BOLINGBRO": 1065,
      "TRANIO": 1066,
      "BOLINGBROKE": 1067,
      "nat": 1068,
      "tears": 1069,
      "##ray": 1070,
      "##ey": 1071,
      "##vost": 1072,
      "help": 1073,
      "whose": 1074,
      "present": 1075,
      "Our": 1076,
      "came": 1077,
      "just": 1078,
      "morrow": 1079,
      "##cle": 1080,
      "##other": 1081,
      "##ins": 1082,
      "##ons": 1083,
      "##its": 1084,
      "dev": 1085,
      "full": 1086,
      "hold": 1087,
      "ro": 1088,
      "read": 1089,
      "since": 1090,
      "under": 1091,
      "##tain": 1092,
      "##vere": 1093,
      "##ory": 1094,
      "bed": 1095,
      "heard": 1096,
      "wrong": 1097,
      "after": 1098,
      "King": 1099,
      "cur": 1100,
      "ere": 1101,
      "kill": 1102,
      "land": 1103,
      "sorrow": 1104,
      "##GAR": 1105,
      "##NE": 1106,
      "happ": 1107,
      "shame": 1108,
      "worth": 1109,
      "MARGAR": 1110,
      "MARGARET": 1111,
      "fall": 1112,
      "last": 1113,
      "mis": 1114,
      "##ru": 1115,
      "##ATH": 1116,
      "meet": 1117,
      "state": 1118,
      "##AMIL": 1119,
      "maid": 1120,
      "ob": 1121,
      "##sand": 1122,
      "whom": 1123,
      "##ush": 1124,
      "answer": 1125,
      "eye": 1126,
      "cousin": 1127,
      "pat": 1128,
      "##ps": 1129,
      "##vy": 1130,
      "##ition": 1131,
      "thousand": 1132,
      "##esty": 1133,
      "##ORD": 1134,
      "Clar": 1135,
      "ANGE": 1136,
      "GRE": 1137,
      "ANGELO": 1138,
      "Eng": 1139,
      "bra": 1140,
      "fal": 1141,
      "less": 1142,
      "##cent": 1143,
      "##ARINA": 1144,
      "##ult": 1145,
      "enem": 1146,
      "fool": 1147,
      "follow": 1148,
      "Clarence": 1149,
      "KATH": 1150,
      "hither": 1151,
      "##SC": 1152,
      "##ceive": 1153,
      "weep": 1154,
      "dep": 1155,
      "sun": 1156,
      "##selves": 1157,
      "##cius": 1158,
      "about": 1159,
      "KATHARINA": 1160,
      "gi": 1161,
      "##pon": 1162,
      "##iol": 1163,
      "##iff": 1164,
      "gentleman": 1165,
      "Marcius": 1166,
      "vir": 1167,
      "##ouch": 1168,
      "wit": 1169,
      "gracious": 1170,
      "coun": 1171,
      "into": 1172,
      "Al": 1173,
      "ESC": 1174,
      "Her": 1175,
      "Un": 1176,
      "hate": 1177,
      "makes": 1178,
      "##ove": 1179,
      "##ALUS": 1180,
      "grief": 1181,
      "fellow": 1182,
      "ESCALUS": 1183,
      "bus": 1184,
      "##ily": 1185,
      "##ject": 1186,
      "bel": 1187,
      "##imes": 1188,
      "please": 1189,
      "##ship": 1190,
      "woman": 1191,
      "royal": 1192,
      "Hath": 1193,
      "turn": 1194,
      "talk": 1195,
      "##ling": 1196,
      "##ised": 1197,
      "dost": 1198,
      "comfort": 1199,
      "pleas": 1200,
      "sleep": 1201,
      "DUCH": 1202,
      "Duke": 1203,
      "hum": 1204,
      "wilt": 1205,
      "##ices": 1206,
      "adv": 1207,
      "court": 1208,
      "DUCHESS": 1209,
      "over": 1210,
      "##ren": 1211,
      "##rant": 1212,
      "##ount": 1213,
      "##ute": 1214,
      "forg": 1215,
      "##itor": 1216,
      "stri": 1217,
      "##ERC": 1218,
      "disp": 1219,
      "Ange": 1220,
      "body": 1221,
      "doub": 1222,
      "sound": 1223,
      "vo": 1224,
      "##ian": 1225,
      "##oth": 1226,
      "inst": 1227,
      "thank": 1228,
      "play": 1229,
      "##urderer": 1230,
      "Angelo": 1231,
      "CAMIL": 1232,
      "car": 1233,
      "ser": 1234,
      "wish": 1235,
      "##IA": 1236,
      "wel": 1237,
      "deed": 1238,
      "another": 1239,
      "prove": 1240,
      "indeed": 1241,
      "false": 1242,
      "CAMILLO": 1243,
      "Even": 1244,
      "Would": 1245,
      "har": 1246,
      "ret": 1247,
      "use": 1248,
      "vill": 1249,
      "##ged": 1250,
      "has": 1251,
      "##ade": 1252,
      "##ieve": 1253,
      "sword": 1254,
      "##ump": 1255,
      "Provost": 1256,
      "HOR": 1257,
      "Ty": 1258,
      "even": 1259,
      "fight": 1260,
      "matter": 1261,
      "pers": 1262,
      "##TEN": 1263,
      "##ains": 1264,
      "##raw": 1265,
      "fortune": 1266,
      "HORTEN": 1267,
      "HORTENS": 1268,
      "FRI": 1269,
      "Upon": 1270,
      "sent": 1271,
      "##ench": 1272,
      "prison": 1273,
      "sovere": 1274,
      "att": 1275,
      "grave": 1276,
      "country": 1277,
      "HORTENSIO": 1278,
      "FRIAR": 1279,
      ",'": 1280,
      "Are": 1281,
      "BAP": 1282,
      "care": 1283,
      "rather": 1284,
      "send": 1285,
      "years": 1286,
      "##ience": 1287,
      "##gar": 1288,
      "##ury": 1289,
      "##STA": 1290,
      "##TISTA": 1291,
      "virt": 1292,
      "BAPTISTA": 1293,
      "AUT": 1294,
      "COM": 1295,
      "More": 1296,
      "ent": 1297,
      "op": 1298,
      "want": 1299,
      "##een": 1300,
      "##eth": 1301,
      "##pect": 1302,
      "##CUS": 1303,
      "##YCUS": 1304,
      "three": 1305,
      "ass": 1306,
      "only": 1307,
      "reven": 1308,
      "##fect": 1309,
      "truth": 1310,
      "##OLYCUS": 1311,
      "business": 1312,
      "AUTOLYCUS": 1313,
      "COMINIUS": 1314,
      ".'": 1315,
      "At": 1316,
      "Tr": 1317,
      "hang": 1318,
      "reas": 1319,
      "##ior": 1320,
      "##esh": 1321,
      "Third": 1322,
      "shalt": 1323,
      "##ents": 1324,
      "lies": 1325,
      "##ARENCE": 1326,
      "##roke": 1327,
      "CLARENCE": 1328,
      "doubt": 1329,
      "born": 1330,
      "den": 1331,
      "lay": 1332,
      "sea": 1333,
      "##ford": 1334,
      "##ENES": 1335,
      "command": 1336,
      "arms": 1337,
      "dream": 1338,
      "##herd": 1339,
      "BEN": 1340,
      "Gentle": 1341,
      "NOR": 1342,
      "##VOL": 1343,
      "##ener": 1344,
      "wind": 1345,
      "prom": 1346,
      "proud": 1347,
      "Clown": 1348,
      "BENVOL": 1349,
      "BENVOLIO": 1350,
      "PRO": 1351,
      "Take": 1352,
      "gre": 1353,
      "pity": 1354,
      "sen": 1355,
      "##ia": 1356,
      "##SP": 1357,
      "##ator": 1358,
      "sold": 1359,
      "spir": 1360,
      "##ERO": 1361,
      "enter": 1362,
      "enough": 1363,
      "deser": 1364,
      "##UMIO": 1365,
      "GRUMIO": 1366,
      "remem": 1367,
      "holy": 1368,
      "PROSP": 1369,
      "PROSPERO": 1370,
      "Did": 1371,
      "Kate": 1372,
      "MERC": 1373,
      "Murderer": 1374,
      "horse": 1375,
      "tend": 1376,
      "##UTIO": 1377,
      "bea": 1378,
      "lives": 1379,
      "##ainst": 1380,
      "swear": 1381,
      "##anger": 1382,
      "MERCUTIO": 1383,
      "Tw": 1384,
      "Were": 1385,
      "get": 1386,
      "##ike": 1387,
      "##IS": 1388,
      "within": 1389,
      "gods": 1390,
      "madam": 1391,
      "LUCENTIO": 1392,
      "Servant": 1393,
      "nature": 1394,
      "welcome": 1395,
      "POM": 1396,
      "foul": 1397,
      "free": 1398,
      "kiss": 1399,
      "sister": 1400,
      "##if": 1401,
      "##unt": 1402,
      "##ken": 1403,
      "things": 1404,
      "##ester": 1405,
      "saw": 1406,
      "break": 1407,
      "##LAND": 1408,
      "purp": 1409,
      "mistress": 1410,
      "happy": 1411,
      "sovereign": 1412,
      "POMP": 1413,
      "Give": 1414,
      "Look": 1415,
      "PAU": 1416,
      "Was": 1417,
      "cra": 1418,
      "city": 1419,
      "yield": 1420,
      "##dd": 1421,
      "##LINA": 1422,
      "##any": 1423,
      "##vers": 1424,
      "spo": 1425,
      "means": 1426,
      "foot": 1427,
      "subject": 1428,
      "beseech": 1429,
      "PAULINA": 1430,
      "Com": 1431,
      "Say": 1432,
      "aw": 1433,
      "bu": 1434,
      "fire": 1435,
      "oath": 1436,
      "wound": 1437,
      "##rem": 1438,
      "wid": 1439,
      "while": 1440,
      "yours": 1441,
      "##gether": 1442,
      "supp": 1443,
      "faith": 1444,
      "##onder": 1445,
      "##ague": 1446,
      "##ength": 1447,
      "GREMIO": 1448,
      "POMPEY": 1449,
      "PO": 1450,
      "VOL": 1451,
      "bur": 1452,
      "cond": 1453,
      "tem": 1454,
      "##ient": 1455,
      "##balt": 1456,
      "##NIA": 1457,
      "##XENES": 1458,
      "yourself": 1459,
      "##usic": 1460,
      "##LIXENES": 1461,
      "disc": 1462,
      "mark": 1463,
      "bloody": 1464,
      "looks": 1465,
      "##UMNIA": 1466,
      "content": 1467,
      "England": 1468,
      "Tybalt": 1469,
      "POLIXENES": 1470,
      "VOLUMNIA": 1471,
      "HAST": 1472,
      "mon": 1473,
      "win": 1474,
      "##tle": 1475,
      "##ues": 1476,
      "##use": 1477,
      "##ingman": 1478,
      "requ": 1479,
      "##INGS": 1480,
      "common": 1481,
      "maj": 1482,
      "Servingman": 1483,
      "##enger": 1484,
      "traitor": 1485,
      "##centio": 1486,
      "villain": 1487,
      "HASTINGS": 1488,
      "Can": 1489,
      "Hast": 1490,
      "LAU": 1491,
      "May": 1492,
      "aff": 1493,
      "lam": 1494,
      "par": 1495,
      "##ms": 1496,
      "##az": 1497,
      "##broke": 1498,
      "##RENCE": 1499,
      "beat": 1500,
      "##essenger": 1501,
      "##fend": 1502,
      "uncle": 1503,
      "##unes": 1504,
      "children": 1505,
      "##form": 1506,
      "woe": 1507,
      "tender": 1508,
      "LAURENCE": 1509,
      "Ah": 1510,
      "Jul": 1511,
      "Pet": 1512,
      "Sp": 1513,
      "danger": 1514,
      "late": 1515,
      "sin": 1516,
      "sight": 1517,
      "val": 1518,
      "##ten": 1519,
      "##aim": 1520,
      "##BY": 1521,
      "##BER": 1522,
      "wear": 1523,
      "##ides": 1524,
      "soon": 1525,
      "days": 1526,
      "warrant": 1527,
      "Therefore": 1528,
      "left": 1529,
      "majesty": 1530,
      "Ch": 1531,
      "Pl": 1532,
      "farewell": 1533,
      "gener": 1534,
      "met": 1535,
      "##by": 1536,
      "##FF": 1537,
      "told": 1538,
      "##omp": 1539,
      "prop": 1540,
      "##LIFF": 1541,
      "save": 1542,
      "##UMBER": 1543,
      "seen": 1544,
      "##THUMBER": 1545,
      "mercy": 1546,
      "NORTHUMBER": 1547,
      "NORTHUMBERLAND": 1548,
      "Lu": 1549,
      "Tell": 1550,
      "cold": 1551,
      "deep": 1552,
      "hard": 1553,
      "near": 1554,
      "sad": 1555,
      "##ub": 1556,
      "##ham": 1557,
      "##TA": 1558,
      "##ID": 1559,
      "##ets": 1560,
      "stra": 1561,
      "##ash": 1562,
      "does": 1563,
      "sure": 1564,
      "##earn": 1565,
      "che": 1566,
      "bless": 1567,
      "Though": 1568,
      "marry": 1569,
      "report": 1570,
      "##retch": 1571,
      "return": 1572,
      "Cor": 1573,
      "cap": 1574,
      "grow": 1575,
      "##dom": 1576,
      "together": 1577,
      "without": 1578,
      "##ters": 1579,
      "gold": 1580,
      "heavy": 1581,
      "ANNE": 1582,
      "through": 1583,
      "Ag": 1584,
      "Bi": 1585,
      "Had": 1586,
      "Mont": 1587,
      "PR": 1588,
      "Sign": 1589,
      "ill": 1590,
      "sit": 1591,
      "sil": 1592,
      "touch": 1593,
      "times": 1594,
      "wat": 1595,
      "##ial": 1596,
      "##ict": 1597,
      "heir": 1598,
      "##enty": 1599,
      "suff": 1600,
      "##ross": 1601,
      "lost": 1602,
      "rec": 1603,
      "##ERD": 1604,
      "pluck": 1605,
      "##INCE": 1606,
      "Cliff": 1607,
      "ears": 1608,
      "strange": 1609,
      "believe": 1610,
      "person": 1611,
      "reason": 1612,
      "Juliet": 1613,
      "PRINCE": 1614,
      "Clifford": 1615,
      "Bol": 1616,
      "Cam": 1617,
      "MI": 1618,
      "Some": 1619,
      "jo": 1620,
      "learn": 1621,
      "run": 1622,
      "##und": 1623,
      "##outh": 1624,
      "##ingbroke": 1625,
      "##rel": 1626,
      "##ceed": 1627,
      "##ours": 1628,
      "thyself": 1629,
      "deli": 1630,
      "liege": 1631,
      "spirit": 1632,
      "remember": 1633,
      "purpose": 1634,
      "Coriol": 1635,
      "Signior": 1636,
      "Bolingbroke": 1637,
      "Away": 1638,
      "Farewell": 1639,
      "air": 1640,
      "age": 1641,
      "##mer": 1642,
      "##ese": 1643,
      "##urs": 1644,
      "Whose": 1645,
      "ask": 1646,
      "loss": 1647,
      "says": 1648,
      "Should": 1649,
      "haste": 1650,
      "ground": 1651,
      "One": 1652,
      "Ha": 1653,
      "Pray": 1654,
      "cry": 1655,
      "fly": 1656,
      "found": 1657,
      "nurse": 1658,
      "past": 1659,
      "vis": 1660,
      "woo": 1661,
      "##rum": 1662,
      "##ner": 1663,
      "##rew": 1664,
      "trust": 1665,
      "friar": 1666,
      "##osed": 1667,
      "service": 1668,
      "justice": 1669,
      "devil": 1670,
      "entreat": 1671,
      "Like": 1672,
      "Sen": 1673,
      "See": 1674,
      "murder": 1675,
      "##ever": 1676,
      "##oh": 1677,
      "##ger": 1678,
      "##ina": 1679,
      "toward": 1680,
      "##oot": 1681,
      "##right": 1682,
      "##ilt": 1683,
      "fault": 1684,
      "##aud": 1685,
      "bold": 1686,
      "##aking": 1687,
      "married": 1688,
      "quick": 1689,
      "slain": 1690,
      "betw": 1691,
      "France": 1692,
      "##ixt": 1693,
      "straight": 1694,
      "AU": 1695,
      "Cap": 1696,
      "FL": 1697,
      "Gl": 1698,
      "Messenger": 1699,
      "bat": 1700,
      "fur": 1701,
      "fast": 1702,
      "##iest": 1703,
      "##ZEL": 1704,
      "##LE": 1705,
      "##IZEL": 1706,
      "##FID": 1707,
      "##oun": 1708,
      "##oman": 1709,
      "These": 1710,
      "##ution": 1711,
      "##each": 1712,
      "##ORIZEL": 1713,
      "##ured": 1714,
      "alone": 1715,
      "desire": 1716,
      "strong": 1717,
      "confess": 1718,
      "worthy": 1719,
      "enemy": 1720,
      "beauty": 1721,
      "general": 1722,
      "deliver": 1723,
      "AUFID": 1724,
      "FLORIZEL": 1725,
      "AUFIDIUS": 1726,
      "Mad": 1727,
      "dish": 1728,
      "rich": 1729,
      "##ring": 1730,
      "##ple": 1731,
      "##mb": 1732,
      "##vent": 1733,
      "##TON": 1734,
      "##xt": 1735,
      "##oward": 1736,
      "hal": 1737,
      "##ION": 1738,
      "poss": 1739,
      "twenty": 1740,
      "brought": 1741,
      "Claud": 1742,
      "exec": 1743,
      "quar": 1744,
      "grant": 1745,
      "hours": 1746,
      "ready": 1747,
      "open": 1748,
      "revenge": 1749,
      "Claudio": 1750,
      "!'": 1751,
      "duty": 1752,
      "red": 1753,
      "##ible": 1754,
      "##ning": 1755,
      "##gs": 1756,
      "##ars": 1757,
      "youth": 1758,
      "bec": 1759,
      "nob": 1760,
      "inc": 1761,
      "inf": 1762,
      "##cept": 1763,
      "iss": 1764,
      "itself": 1765,
      "lose": 1766,
      "speed": 1767,
      "##ERS": 1768,
      "##aunt": 1769,
      "canst": 1770,
      "##umber": 1771,
      "knows": 1772,
      "work": 1773,
      "##inks": 1774,
      "Shep": 1775,
      "prof": 1776,
      "thoughts": 1777,
      "charge": 1778,
      "Gentleman": 1779,
      "Senator": 1780,
      "Madam": 1781,
      "Bec": 1782,
      "Master": 1783,
      "SE": 1784,
      "dam": 1785,
      "div": 1786,
      "feel": 1787,
      "jud": 1788,
      "morn": 1789,
      "##cester": 1790,
      "##no": 1791,
      "##ua": 1792,
      "##aid": 1793,
      "##AS": 1794,
      "##CIUS": 1795,
      "##BAST": 1796,
      "##ert": 1797,
      "##riage": 1798,
      "##illo": 1799,
      "mock": 1800,
      "point": 1801,
      "dist": 1802,
      "desp": 1803,
      "strength": 1804,
      "stands": 1805,
      "MARCIUS": 1806,
      "Against": 1807,
      "Montague": 1808,
      "Glou": 1809,
      "Shepherd": 1810,
      "SEBAST": 1811,
      "SEBASTIAN": 1812,
      "bound": 1813,
      "field": 1814,
      "min": 1815,
      "sec": 1816,
      "ter": 1817,
      "ten": 1818,
      "##som": 1819,
      "##up": 1820,
      "##OW": 1821,
      "##ingham": 1822,
      "Thus": 1823,
      "hell": 1824,
      "##oop": 1825,
      "##iles": 1826,
      "##fection": 1827,
      "##olk": 1828,
      "post": 1829,
      "hearts": 1830,
      "fearful": 1831,
      "##ments": 1832,
      "resol": 1833,
      "trib": 1834,
      "behold": 1835,
      "counsel": 1836,
      "Camillo": 1837,
      "half": 1838,
      "Buck": 1839,
      "BION": 1840,
      "Till": 1841,
      "Vol": 1842,
      "bit": 1843,
      "cut": 1844,
      "each": 1845,
      "side": 1846,
      "tale": 1847,
      "wretch": 1848,
      "ye": 1849,
      "##ift": 1850,
      "##dle": 1851,
      "##vo": 1852,
      "##DEL": 1853,
      "##ined": 1854,
      "short": 1855,
      "suit": 1856,
      "##ions": 1857,
      "change": 1858,
      "known": 1859,
      "bosom": 1860,
      "##ortal": 1861,
      "marriage": 1862,
      "honest": 1863,
      "flatter": 1864,
      "women": 1865,
      "harm": 1866,
      "widow": 1867,
      "Hastings": 1868,
      "Gloucester": 1869,
      "Buckingham": 1870,
      "BIONDEL": 1871,
      "BIONDELLO": 1872,
      "draw": 1873,
      "lead": 1874,
      "tit": 1875,
      "watch": 1876,
      "wonder": 1877,
      "##cess": 1878,
      "##iers": 1879,
      "##folk": 1880,
      "##ones": 1881,
      "##rah": 1882,
      "##ander": 1883,
      "loving": 1884,
      "seek": 1885,
      "something": 1886,
      "Norfolk": 1887,
      "company": 1888,
      "highness": 1889,
      "strike": 1890,
      "voices": 1891,
      "serve": 1892,
      "attend": 1893,
      "Vols": 1894,
      "AUM": 1895,
      "CA": 1896,
      "Wel": 1897,
      "cor": 1898,
      "gar": 1899,
      "music": 1900,
      "sat": 1901,
      "sing": 1902,
      "sick": 1903,
      "wa": 1904,
      "##of": 1905,
      "##OP": 1906,
      "##asure": 1907,
      "del": 1908,
      "knew": 1909,
      "##ERLE": 1910,
      "didst": 1911,
      "gentlemen": 1912,
      "ANTON": 1913,
      "heavens": 1914,
      "pret": 1915,
      "Lucentio": 1916,
      "AUMERLE": 1917,
      "ANTONIO": 1918,
      "GON": 1919,
      "Lanc": 1920,
      "act": 1921,
      "lad": 1922,
      "pie": 1923,
      "pale": 1924,
      "sk": 1925,
      "sake": 1926,
      "same": 1927,
      "sign": 1928,
      "wast": 1929,
      "##ule": 1930,
      "##lish": 1931,
      "##most": 1932,
      "##ALO": 1933,
      "##ZALO": 1934,
      "##ouble": 1935,
      "##eter": 1936,
      "stir": 1937,
      "order": 1938,
      "##umb": 1939,
      "##apt": 1940,
      "Marry": 1941,
      "cloud": 1942,
      "course": 1943,
      "brave": 1944,
      "enemies": 1945,
      "pleasure": 1946,
      "Bianc": 1947,
      "suffer": 1948,
      "GONZALO": 1949,
      "Lancaster": 1950,
      "HER": 1951,
      "Lady": 1952,
      "Most": 1953,
      "Sw": 1954,
      "Unt": 1955,
      "book": 1956,
      "cast": 1957,
      "dare": 1958,
      "gates": 1959,
      "mouth": 1960,
      "ty": 1961,
      "wall": 1962,
      "##fid": 1963,
      "##bs": 1964,
      "##urp": 1965,
      "##oose": 1966,
      "withal": 1967,
      "pra": 1968,
      "reg": 1969,
      "next": 1970,
      "coming": 1971,
      "thanks": 1972,
      "abs": 1973,
      "ext": 1974,
      "##ize": 1975,
      "souls": 1976,
      "##like": 1977,
      "##ceived": 1978,
      "cheer": 1979,
      "title": 1980,
      "Bianca": 1981,
      "CLIFF": 1982,
      "ev": 1983,
      "either": 1984,
      "fit": 1985,
      "jest": 1986,
      "sel": 1987,
      "ve": 1988,
      "weak": 1989,
      "##ef": 1990,
      "##ac": 1991,
      "##DIO": 1992,
      "##ated": 1993,
      "become": 1994,
      "##etch": 1995,
      "##ally": 1996,
      "priv": 1997,
      "lips": 1998,
      "##used": 1999,
      "cham": 2000,
      "chee": 2001,
      "##ils": 2002,
      "themselves": 2003,
      "plain": 2004,
      "took": 2005,
      "##AUDIO": 2006,
      "prep": 2007,
      "##ude": 2008,
      "appear": 2009,
      "##rief": 2010,
      "merry": 2011,
      "CLAUDIO": 2012,
      "##claim": 2013,
      "##MIONE": 2014,
      "patience": 2015,
      "Alas": 2016,
      "Petr": 2017,
      "HERMIONE": 2018,
      "CLIFFORD": 2019,
      "Au": 2020,
      "Call": 2021,
      "EL": 2022,
      "JO": 2023,
      "LORD": 2024,
      "Make": 2025,
      "Since": 2026,
      "ac": 2027,
      "dro": 2028,
      "ven": 2029,
      "##ting": 2030,
      "##over": 2031,
      "##ught": 2032,
      "##uff": 2033,
      "##kes": 2034,
      "##vour": 2035,
      "##DA": 2036,
      "##ertain": 2037,
      "##ats": 2038,
      "##isf": 2039,
      "##anio": 2040,
      "##ready": 2041,
      "##irth": 2042,
      "forb": 2043,
      "##oof": 2044,
      "speech": 2045,
      "##ilst": 2046,
      "black": 2047,
      "sworn": 2048,
      "##unk": 2049,
      "worse": 2050,
      "poison": 2051,
      "twere": 2052,
      "twas": 2053,
      "##uchio": 2054,
      "along": 2055,
      "exp": 2056,
      "breast": 2057,
      "Being": 2058,
      "consul": 2059,
      "##RANDA": 2060,
      "virtue": 2061,
      "Tranio": 2062,
      "MIRANDA": 2063,
      "further": 2064,
      "issue": 2065,
      "##fidius": 2066,
      "Petruchio": 2067,
      "Aufidius": 2068,
      "bar": 2069,
      "bad": 2070,
      "brow": 2071,
      "burn": 2072,
      "curse": 2073,
      "four": 2074,
      "gave": 2075,
      "mal": 2076,
      "wed": 2077,
      "wise": 2078,
      "##hood": 2079,
      "##SON": 2080,
      "##HN": 2081,
      "thri": 2082,
      "##arry": 2083,
      "inter": 2084,
      "##east": 2085,
      "liber": 2086,
      "soft": 2087,
      "##race": 2088,
      "loves": 2089,
      "##ief": 2090,
      "move": 2091,
      "##ape": 2092,
      "##ept": 2093,
      "already": 2094,
      "office": 2095,
      "Hereford": 2096,
      "begin": 2097,
      "consent": 2098,
      "emb": 2099,
      "given": 2100,
      "forget": 2101,
      "request": 2102,
      "dangerous": 2103,
      "water": 2104,
      "battle": 2105,
      "morning": 2106,
      "self": 2107,
      "JOHN": 2108,
      "Ar": 2109,
      "Tower": 2110,
      "Yes": 2111,
      "baw": 2112,
      "dire": 2113,
      "feast": 2114,
      "gro": 2115,
      "hot": 2116,
      "pay": 2117,
      "ra": 2118,
      "ta": 2119,
      "##fter": 2120,
      "##uous": 2121,
      "##mond": 2122,
      "##gry": 2123,
      "##orge": 2124,
      "##anus": 2125,
      "##ool": 2126,
      "succ": 2127,
      "neither": 2128,
      "frown": 2129,
      "goes": 2130,
      "##icer": 2131,
      "worship": 2132,
      "enc": 2133,
      "##els": 2134,
      "sons": 2135,
      "Before": 2136,
      "foe": 2137,
      "Richmond": 2138,
      "servant": 2139,
      "soldiers": 2140,
      "##dden": 2141,
      "wounds": 2142,
      "Speak": 2143,
      "Coriolanus": 2144,
      "between": 2145,
      "quarrel": 2146,
      "Welcome": 2147,
      "satisf": 2148,
      "Ab": 2149,
      "Bes": 2150,
      "Must": 2151,
      "Pr": 2152,
      "Such": 2153,
      "Saint": 2154,
      "bow": 2155,
      "ble": 2156,
      "brief": 2157,
      "dar": 2158,
      "dark": 2159,
      "est": 2160,
      "got": 2161,
      "sigh": 2162,
      "und": 2163,
      "vict": 2164,
      "wis": 2165,
      "##rist": 2166,
      "##ued": 2167,
      "##uit": 2168,
      "##gn": 2169,
      "##NT": 2170,
      "##erc": 2171,
      "##aris": 2172,
      "town": 2173,
      "##owers": 2174,
      "often": 2175,
      "##omet": 2176,
      "having": 2177,
      "##irm": 2178,
      "##ires": 2179,
      "##roth": 2180,
      "loved": 2181,
      "thence": 2182,
      "##empt": 2183,
      "bride": 2184,
      "Margar": 2185,
      "close": 2186,
      "##TESBY": 2187,
      "presence": 2188,
      "dread": 2189,
      "Unless": 2190,
      "Because": 2191,
      "bitter": 2192,
      "CATESBY": 2193,
      "Margaret": 2194,
      "Both": 2195,
      "Bapt": 2196,
      "Keep": 2197,
      "Lond": 2198,
      "ap": 2199,
      "bab": 2200,
      "col": 2201,
      "creat": 2202,
      "case": 2203,
      "ld": 2204,
      "mortal": 2205,
      "ow": 2206,
      "pen": 2207,
      "vow": 2208,
      "##sc": 2209,
      "##od": 2210,
      "##ILI": 2211,
      "##ona": 2212,
      "meth": 2213,
      "##ooth": 2214,
      "Whom": 2215,
      "##ider": 2216,
      "Their": 2217,
      "sum": 2218,
      "knock": 2219,
      "##ends": 2220,
      "kings": 2221,
      "##cient": 2222,
      "wars": 2223,
      "GREY": 2224,
      "mighty": 2225,
      "compl": 2226,
      "respect": 2227,
      "throne": 2228,
      "seems": 2229,
      "voice": 2230,
      "deny": 2231,
      "promise": 2232,
      "spoke": 2233,
      "join": 2234,
      "visit": 2235,
      "possess": 2236,
      "chamber": 2237,
      "Baptist": 2238,
      "London": 2239,
      "BIAN": 2240,
      "De": 2241,
      "Ere": 2242,
      "Ge": 2243,
      "Lest": 2244,
      "Paris": 2245,
      "RI": 2246,
      "action": 2247,
      "cross": 2248,
      "du": 2249,
      "hur": 2250,
      "viol": 2251,
      "##iant": 2252,
      "##VERS": 2253,
      "##CA": 2254,
      "throw": 2255,
      "##llow": 2256,
      "##ures": 2257,
      "##urch": 2258,
      "##ided": 2259,
      "prot": 2260,
      "##eem": 2261,
      "##ourn": 2262,
      "##vern": 2263,
      "sudden": 2264,
      "ancient": 2265,
      "moon": 2266,
      "wash": 2267,
      "##emn": 2268,
      "safe": 2269,
      "##aken": 2270,
      "##ired": 2271,
      "Isab": 2272,
      "prayers": 2273,
      "scar": 2274,
      "##ainted": 2275,
      "princely": 2276,
      "curs": 2277,
      "deeds": 2278,
      "##umph": 2279,
      "buy": 2280,
      "dishon": 2281,
      "bawd": 2282,
      "##ILIA": 2283,
      "Baptista": 2284,
      "BIANCA": 2285,
      "George": 2286,
      "RIVERS": 2287,
      "GAU": 2288,
      "Per": 2289,
      "Roman": 2290,
      "coward": 2291,
      "dra": 2292,
      "eat": 2293,
      "fetch": 2294,
      "gall": 2295,
      "lim": 2296,
      "opp": 2297,
      "pal": 2298,
      "rage": 2299,
      "##pl": 2300,
      "##now": 2301,
      "##ges": 2302,
      "##be": 2303,
      "##BOW": 2304,
      "##ern": 2305,
      "##anch": 2306,
      "prin": 2307,
      "reb": 2308,
      "##otion": 2309,
      "##ults": 2310,
      "##antage": 2311,
      "##oney": 2312,
      "favour": 2313,
      "##augh": 2314,
      "kingdom": 2315,
      "sac": 2316,
      "offer": 2317,
      "flesh": 2318,
      "scorn": 2319,
      "heads": 2320,
      "appro": 2321,
      "North": 2322,
      "Stand": 2323,
      "triumph": 2324,
      "treas": 2325,
      "presently": 2326,
      "patient": 2327,
      "witness": 2328,
      "lament": 2329,
      "valiant": 2330,
      "ELBOW": 2331,
      "success": 2332,
      "GAUNT": 2333,
      "Bl": 2334,
      "Hort": 2335,
      "Hold": 2336,
      "Hark": 2337,
      "MON": 2338,
      "Ox": 2339,
      "TY": 2340,
      "cle": 2341,
      "eas": 2342,
      "kins": 2343,
      "lack": 2344,
      "lab": 2345,
      "nay": 2346,
      "##ether": 2347,
      "##sper": 2348,
      "##ying": 2349,
      "##mand": 2350,
      "##gr": 2351,
      "##GUE": 2352,
      "##UR": 2353,
      "Think": 2354,
      "forward": 2355,
      "prith": 2356,
      "def": 2357,
      "defend": 2358,
      "chang": 2359,
      "##ilty": 2360,
      "##antag": 2361,
      "faults": 2362,
      "unw": 2363,
      "almost": 2364,
      "least": 2365,
      "slave": 2366,
      "perform": 2367,
      "##ensio": 2368,
      "drink": 2369,
      "Christ": 2370,
      "##TAGUE": 2371,
      "damn": 2372,
      "tribunes": 2373,
      "Hortensio": 2374,
      "MONTAGUE": 2375,
      "Oxford": 2376,
      "prithee": 2377,
      "Boh": 2378,
      "Con": 2379,
      "Gre": 2380,
      "Kath": 2381,
      "Peace": 2382,
      "Pomp": 2383,
      "Yea": 2384,
      "ay": 2385,
      "ca": 2386,
      "dest": 2387,
      "fi": 2388,
      "fill": 2389,
      "fie": 2390,
      "fond": 2391,
      "hide": 2392,
      "mid": 2393,
      "match": 2394,
      "occ": 2395,
      "pit": 2396,
      "sur": 2397,
      "##ife": 2398,
      "##ivers": 2399,
      "##oss": 2400,
      "##oint": 2401,
      "##host": 2402,
      "##hile": 2403,
      "##day": 2404,
      "##ls": 2405,
      "##king": 2406,
      "##aul": 2407,
      "##vest": 2408,
      "thither": 2409,
      "##ines": 2410,
      "##arina": 2411,
      "##thy": 2412,
      "beast": 2413,
      "ins": 2414,
      "##ley": 2415,
      "##ural": 2416,
      "fore": 2417,
      "##eap": 2418,
      "##ries": 2419,
      "chance": 2420,
      "##asters": 2421,
      "neck": 2422,
      "##feit": 2423,
      "shep": 2424,
      "trump": 2425,
      "usurp": 2426,
      "##aked": 2427,
      "march": 2428,
      "slaughter": 2429,
      "writ": 2430,
      "##ully": 2431,
      "Stay": 2432,
      "Doth": 2433,
      "small": 2434,
      "depart": 2435,
      "subjects": 2436,
      "execution": 2437,
      "##umberland": 2438,
      "pretty": 2439,
      "Northumberland": 2440,
      "Bohem": 2441,
      "Katharina": 2442,
      "Pompey": 2443,
      "Ad": 2444,
      "Am": 2445,
      "Ca": 2446,
      "Ex": 2447,
      "Hear": 2448,
      "PERD": 2449,
      "Paul": 2450,
      "base": 2451,
      "birth": 2452,
      "cal": 2453,
      "certain": 2454,
      "mild": 2455,
      "ph": 2456,
      "pain": 2457,
      "tear": 2458,
      "ut": 2459,
      "walk": 2460,
      "wert": 2461,
      "##pe": 2462,
      "##GILIA": 2463,
      "##ITA": 2464,
      "##RGILIA": 2465,
      "##arl": 2466,
      "##ann": 2467,
      "##inger": 2468,
      "##stand": 2469,
      "wild": 2470,
      "inno": 2471,
      "whence": 2472,
      "form": 2473,
      "stor": 2474,
      "living": 2475,
      "##amed": 2476,
      "fresh": 2477,
      "goodly": 2478,
      "govern": 2479,
      "hadst": 2480,
      "proceed": 2481,
      "hearing": 2482,
      "offence": 2483,
      "beggar": 2484,
      "VIRGILIA": 2485,
      "##perate": 2486,
      "glad": 2487,
      "##ledge": 2488,
      "instru": 2489,
      "virtuous": 2490,
      "soldier": 2491,
      "awhile": 2492,
      "quickly": 2493,
      "Sweet": 2494,
      "extrem": 2495,
      "Bohemia": 2496,
      "PERDITA": 2497,
      "Meth": 2498,
      "SL": 2499,
      "ben": 2500,
      "ef": 2501,
      "fe": 2502,
      "rid": 2503,
      "sch": 2504,
      "somet": 2505,
      "tor": 2506,
      "ur": 2507,
      "wench": 2508,
      "year": 2509,
      "##ror": 2510,
      "##ted": 2511,
      "##oice": 2512,
      "##fully": 2513,
      "##ding": 2514,
      "##lic": 2515,
      "##gg": 2516,
      "##ared": 2517,
      "##eness": 2518,
      "##isure": 2519,
      "##ingly": 2520,
      "offend": 2521,
      "##omes": 2522,
      "##eds": 2523,
      "##edant": 2524,
      "inj": 2525,
      "heal": 2526,
      "measure": 2527,
      "forsw": 2528,
      "##ames": 2529,
      "##ament": 2530,
      "doing": 2531,
      "angry": 2532,
      "church": 2533,
      "##astard": 2534,
      "##iled": 2535,
      "knee": 2536,
      "kneel": 2537,
      "##ustom": 2538,
      "blows": 2539,
      "##oler": 2540,
      "tru": 2541,
      "worst": 2542,
      "##cience": 2543,
      "disg": 2544,
      "quiet": 2545,
      "greater": 2546,
      "adm": 2547,
      "MARIAN": 2548,
      "leisure": 2549,
      "affection": 2550,
      "drum": 2551,
      "slew": 2552,
      "purs": 2553,
      "guilty": 2554,
      "lawful": 2555,
      "##force": 2556,
      "banishment": 2557,
      "weeping": 2558,
      "deserved": 2559,
      "Isabel": 2560,
      "SLY": 2561,
      "MARIANA": 2562,
      "Bel": 2563,
      "Grem": 2564,
      "Grum": 2565,
      "Men": 2566,
      "Mist": 2567,
      "Out": 2568,
      "Off": 2569,
      "Pad": 2570,
      "Pri": 2571,
      "PAR": 2572,
      "ST": 2573,
      "Watch": 2574,
      "citiz": 2575,
      "five": 2576,
      "hat": 2577,
      "ign": 2578,
      "list": 2579,
      "med": 2580,
      "rough": 2581,
      "second": 2582,
      "seal": 2583,
      "seas": 2584,
      "won": 2585,
      "##ual": 2586,
      "##ked": 2587,
      "##aves": 2588,
      "##awn": 2589,
      "##vol": 2590,
      "##gue": 2591,
      "##bb": 2592,
      "##joy": 2593,
      "##ony": 2594,
      "##str": 2595,
      "bell": 2596,
      "hap": 2597,
      "shad": 2598,
      "shows": 2599,
      "##ities": 2600,
      "While": 2601,
      "stre": 2602,
      "sole": 2603,
      "doom": 2604,
      "reign": 2605,
      "##uel": 2606,
      "ourselves": 2607,
      "##aste": 2608,
      "blow": 2609,
      "wouldst": 2610,
      "letter": 2611,
      "letters": 2612,
      "unk": 2613,
      "grand": 2614,
      "speaks": 2615,
      "fled": 2616,
      "##ighb": 2617,
      "##itted": 2618,
      "contin": 2619,
      "##osition": 2620,
      "Sirrah": 2621,
      "needs": 2622,
      "behind": 2623,
      "##rupt": 2624,
      "English": 2625,
      "prisoner": 2626,
      "sense": 2627,
      "condemn": 2628,
      "Plantag": 2629,
      "proph": 2630,
      "because": 2631,
      "ladies": 2632,
      "piece": 2633,
      "clouds": 2634,
      "forbid": 2635,
      "liberty": 2636,
      "encoun": 2637,
      "dishonour": 2638,
      "shepherd": 2639,
      "Gremio": 2640,
      "Grumio": 2641,
      "Padua": 2642,
      "PARIS": 2643,
      "ignor": 2644,
      "Plantagen": 2645,
      ":'": 2646,
      "Ap": 2647,
      "Ant": 2648,
      "Fa": 2649,
      "Fear": 2650,
      "Gaunt": 2651,
      "Int": 2652,
      "Merc": 2653,
      "Sc": 2654,
      "Too": 2655,
      "Ver": 2656,
      "big": 2657,
      "bones": 2658,
      "corn": 2659,
      "dry": 2660,
      "fat": 2661,
      "hund": 2662,
      "laid": 2663,
      "mut": 2664,
      "pet": 2665,
      "sort": 2666,
      "teach": 2667,
      "vain": 2668,
      "##ph": 2669,
      "##ipp": 2670,
      "##hold": 2671,
      "##zen": 2672,
      "##arn": 2673,
      "##arge": 2674,
      "##ank": 2675,
      "##vel": 2676,
      "oft": 2677,
      "##ster": 2678,
      "noise": 2679,
      "held": 2680,
      "shed": 2681,
      "ship": 2682,
      "note": 2683,
      "stain": 2684,
      "stop": 2685,
      "steal": 2686,
      "steel": 2687,
      "lived": 2688,
      "aside": 2689,
      "dog": 2690,
      "ref": 2691,
      "choose": 2692,
      "swift": 2693,
      "unc": 2694,
      "##ope": 2695,
      "##elve": 2696,
      "proclaim": 2697,
      "prosper": 2698,
      "above": 2699,
      "slander": 2700,
      "seat": 2701,
      "PETER": 2702,
      "longer": 2703,
      "womb": 2704,
      "conscience": 2705,
      "drunk": 2706,
      "glass": 2707,
      "breathe": 2708,
      "banished": 2709,
      "obey": 2710,
      "dispatch": 2711,
      "instrum": 2712,
      "temp": 2713,
      "golden": 2714,
      "secret": 2715,
      "victory": 2716,
      "Plantagenet": 2717,
      "hundred": 2718,
      "!--": 2719,
      "ARI": 2720,
      "Could": 2721,
      "Cates": 2722,
      "DOR": 2723,
      "En": 2724,
      "Earl": 2725,
      "Hea": 2726,
      "LAR": 2727,
      "Po": 2728,
      "Re": 2729,
      "XI": 2730,
      "fam": 2731,
      "fine": 2732,
      "low": 2733,
      "lust": 2734,
      "sim": 2735,
      "sour": 2736,
      "sus": 2737,
      "saint": 2738,
      "##ron": 2739,
      "##ees": 2740,
      "##eld": 2741,
      "##so": 2742,
      "##ives": 2743,
      "##ler": 2744,
      "##ys": 2745,
      "##app": 2746,
      "##TIUS": 2747,
      "##bit": 2748,
      "##WIS": 2749,
      "threat": 2750,
      "##ators": 2751,
      "##inius": 2752,
      "##vey": 2753,
      "##read": 2754,
      "bend": 2755,
      "##set": 2756,
      "##ceit": 2757,
      "##ety": 2758,
      "stood": 2759,
      "yourselves": 2760,
      "weary": 2761,
      "pride": 2762,
      "##asion": 2763,
      "##cked": 2764,
      "loath": 2765,
      "knees": 2766,
      "##ular": 2767,
      "lordship": 2768,
      "conqu": 2769,
      "##ieu": 2770,
      "mod": 2771,
      "##icious": 2772,
      "##ume": 2773,
      "knowledge": 2774,
      "##ounds": 2775,
      "saf": 2776,
      "broke": 2777,
      "exc": 2778,
      "desperate": 2779,
      "warm": 2780,
      "sever": 2781,
      "precious": 2782,
      "bears": 2783,
      "remain": 2784,
      "LEWIS": 2785,
      "##ances": 2786,
      "drown": 2787,
      "Citizens": 2788,
      "glory": 2789,
      "##uthor": 2790,
      "woes": 2791,
      "lands": 2792,
      "obed": 2793,
      "counter": 2794,
      "forgot": 2795,
      "entertain": 2796,
      "blessed": 2797,
      "towards": 2798,
      "Capule": 2799,
      "despair": 2800,
      "Unto": 2801,
      "venge": 2802,
      "wisdom": 2803,
      "kinsman": 2804,
      "labour": 2805,
      "effect": 2806,
      "Watchman": 2807,
      "citizens": 2808,
      "encounter": 2809,
      "ARIEL": 2810,
      "Catesby": 2811,
      "LARTIUS": 2812,
      ";'": 2813,
      "Aum": 2814,
      "Cons": 2815,
      "CUR": 2816,
      "Dis": 2817,
      "Fl": 2818,
      "Fri": 2819,
      "Joh": 2820,
      "Mow": 2821,
      "Pardon": 2822,
      "Pedant": 2823,
      "SAM": 2824,
      "author": 2825,
      "bastard": 2826,
      "died": 2827,
      "deter": 2828,
      "eld": 2829,
      "fought": 2830,
      "few": 2831,
      "gir": 2832,
      "kept": 2833,
      "mount": 2834,
      "money": 2835,
      "masters": 2836,
      "##to": 2837,
      "##vail": 2838,
      "##gment": 2839,
      "##with": 2840,
      "##br": 2841,
      "##bray": 2842,
      "##PSON": 2843,
      "##erle": 2844,
      "hair": 2845,
      "##let": 2846,
      "white": 2847,
      "stone": 2848,
      "stud": 2849,
      "##ease": 2850,
      "##estion": 2851,
      "deb": 2852,
      "##ility": 2853,
      "##cted": 2854,
      "manner": 2855,
      "enjoy": 2856,
      "plant": 2857,
      "##aps": 2858,
      "prov": 2859,
      "Within": 2860,
      "alive": 2861,
      "abro": 2862,
      "flowers": 2863,
      "quoth": 2864,
      "honours": 2865,
      "seven": 2866,
      "struck": 2867,
      "##ations": 2868,
      "contr": 2869,
      "deadly": 2870,
      "remed": 2871,
      "army": 2872,
      "guest": 2873,
      "guess": 2874,
      "guard": 2875,
      "##ontent": 2876,
      "##TIS": 2877,
      "understand": 2878,
      "foolish": 2879,
      "promised": 2880,
      "##ursed": 2881,
      "wretched": 2882,
      "cheeks": 2883,
      "Keeper": 2884,
      "methinks": 2885,
      "##ointed": 2886,
      "school": 2887,
      "Faith": 2888,
      "Aumerle": 2889,
      "CURTIS": 2890,
      "John": 2891,
      "Mowbray": 2892,
      "SAMPSON": 2893,
      "determ": 2894,
      ":--": 2895,
      "Bro": 2896,
      "EX": 2897,
      "Either": 2898,
      "Lew": 2899,
      "Mine": 2900,
      "Ne": 2901,
      "Put": 2902,
      "Ple": 2903,
      "aid": 2904,
      "cred": 2905,
      "cried": 2906,
      "din": 2907,
      "double": 2908,
      "gent": 2909,
      "hun": 2910,
      "laugh": 2911,
      "ren": 2912,
      "rot": 2913,
      "rise": 2914,
      "rock": 2915,
      "tent": 2916,
      "try": 2917,
      "##pir": 2918,
      "##oll": 2919,
      "##mit": 2920,
      "##AT": 2921,
      "##GON": 2922,
      "##bly": 2923,
      "##bury": 2924,
      "##LEY": 2925,
      "##URY": 2926,
      "##BURY": 2927,
      "##orious": 2928,
      "##esy": 2929,
      "##stant": 2930,
      "##utio": 2931,
      "shake": 2932,
      "whether": 2933,
      "##itors": 2934,
      "star": 2935,
      "stars": 2936,
      "##allow": 2937,
      "##ident": 2938,
      "liest": 2939,
      "##ords": 2940,
      "##als": 2941,
      "door": 2942,
      "demand": 2943,
      "butch": 2944,
      "herself": 2945,
      "spent": 2946,
      "neighb": 2947,
      "among": 2948,
      "moved": 2949,
      "going": 2950,
      "unp": 2951,
      "unf": 2952,
      "unh": 2953,
      "brothers": 2954,
      "officer": 2955,
      "early": 2956,
      "honourable": 2957,
      "##ways": 2958,
      "cruel": 2959,
      "ANTI": 2960,
      "calls": 2961,
      "trick": 2962,
      "account": 2963,
      "kindred": 2964,
      "charity": 2965,
      "humble": 2966,
      "True": 2967,
      "dreams": 2968,
      "greet": 2969,
      "month": 2970,
      "valour": 2971,
      "judge": 2972,
      "summer": 2973,
      "scarce": 2974,
      "health": 2975,
      "truly": 2976,
      "Mercutio": 2977,
      "Heaven": 2978,
      "Poor": 2979,
      "Lewis": 2980,
      "##GONUS": 2981,
      "ANTIGONUS": 2982,
      "AB": 2983,
      "Bet": 2984,
      "Bid": 2985,
      "Harry": 2986,
      "Lo": 2987,
      "Made": 2988,
      "Music": 2989,
      "Never": 2990,
      "RAT": 2991,
      "Sic": 2992,
      "bright": 2993,
      "cir": 2994,
      "custom": 2995,
      "dance": 2996,
      "deal": 2997,
      "dwell": 2998,
      "faint": 2999,
      "idle": 3000,
      "pun": 3001,
      "pack": 3002,
      "rag": 3003,
      "ver": 3004,
      "vie": 3005,
      "wail": 3006,
      "yea": 3007,
      "##iance": 3008,
      "##ians": 3009,
      "##under": 3010,
      "##aff": 3011,
      "##RA": 3012,
      "##CLIFF": 3013,
      "thro": 3014,
      "##orthy": 3015,
      "shrew": 3016,
      "force": 3017,
      "##ites": 3018,
      "##ited": 3019,
      "priest": 3020,
      "##ads": 3021,
      "##ask": 3022,
      "##amp": 3023,
      "deg": 3024,
      "##roy": 3025,
      "anon": 3026,
      "lod": 3027,
      "ours": 3028,
      "blame": 3029,
      "blush": 3030,
      "thereof": 3031,
      "unb": 3032,
      "envy": 3033,
      "dism": 3034,
      "provost": 3035,
      "thinks": 3036,
      "wherefore": 3037,
      "clock": 3038,
      "party": 3039,
      "add": 3040,
      "foes": 3041,
      "others": 3042,
      "grown": 3043,
      "imag": 3044,
      "Once": 3045,
      "trial": 3046,
      "kindness": 3047,
      "bids": 3048,
      "cover": 3049,
      "miser": 3050,
      "Alack": 3051,
      "Twas": 3052,
      "##ify": 3053,
      "crave": 3054,
      "Cominius": 3055,
      "condition": 3056,
      "winter": 3057,
      "##azed": 3058,
      "judgment": 3059,
      "minister": 3060,
      "Volsces": 3061,
      "walls": 3062,
      "private": 3063,
      "malice": 3064,
      "satisfied": 3065,
      "creature": 3066,
      "treason": 3067,
      "benef": 3068,
      "vengeance": 3069,
      "abroad": 3070,
      "RATCLIFF": 3071,
      "view": 3072,
      "'?": 3073,
      "After": 3074,
      "Barn": 3075,
      "Des": 3076,
      "El": 3077,
      "Fie": 3078,
      "Hence": 3079,
      "Mant": 3080,
      "Rut": 3081,
      "Under": 3082,
      "Vin": 3083,
      "Wilt": 3084,
      "bite": 3085,
      "corse": 3086,
      "dull": 3087,
      "firm": 3088,
      "finger": 3089,
      "gown": 3090,
      "hol": 3091,
      "lest": 3092,
      "ru": 3093,
      "root": 3094,
      "vice": 3095,
      "vile": 3096,
      "wre": 3097,
      "wag": 3098,
      "weal": 3099,
      "##rest": 3100,
      "##rann": 3101,
      "##oke": 3102,
      "##ne": 3103,
      "##night": 3104,
      "##ners": 3105,
      "##vish": 3106,
      "##vious": 3107,
      "##ging": 3108,
      "##HOP": 3109,
      "##BAL": 3110,
      "##erous": 3111,
      "##orous": 3112,
      "##ating": 3113,
      "##arp": 3114,
      "##enes": 3115,
      "##vell": 3116,
      "##omas": 3117,
      "bef": 3118,
      "Thomas": 3119,
      "incl": 3120,
      "##cell": 3121,
      "##leep": 3122,
      "meat": 3123,
      "former": 3124,
      "Whilst": 3125,
      "proof": 3126,
      "received": 3127,
      "sport": 3128,
      "spring": 3129,
      "fruit": 3130,
      "##ots": 3131,
      "concl": 3132,
      "convey": 3133,
      "blind": 3134,
      "god": 3135,
      "##ANLEY": 3136,
      "trouble": 3137,
      "arri": 3138,
      "uns": 3139,
      "unl": 3140,
      "##unning": 3141,
      "mayst": 3142,
      "##ement": 3143,
      "Show": 3144,
      "honesty": 3145,
      "flower": 3146,
      "quite": 3147,
      "question": 3148,
      "Lords": 3149,
      "##shal": 3150,
      "intend": 3151,
      "tongues": 3152,
      "##ailor": 3153,
      "##ierce": 3154,
      "counten": 3155,
      "impr": 3156,
      "maids": 3157,
      "deputy": 3158,
      "humour": 3159,
      "swords": 3160,
      "sentence": 3161,
      "##ISHOP": 3162,
      "##aze": 3163,
      "Peter": 3164,
      "Corioli": 3165,
      "tyrant": 3166,
      "evil": 3167,
      "acqu": 3168,
      "Death": 3169,
      "TYBAL": 3170,
      "easy": 3171,
      "changed": 3172,
      "Paulina": 3173,
      "utter": 3174,
      "Methinks": 3175,
      "STANLEY": 3176,
      "excuse": 3177,
      "Mantua": 3178,
      "Rutland": 3179,
      "Vincentio": 3180,
      "TYBALT": 3181,
      "Dost": 3182,
      "Ind": 3183,
      "Jove": 3184,
      "Love": 3185,
      "Me": 3186,
      "Su": 3187,
      "Som": 3188,
      "TH": 3189,
      "Tut": 3190,
      "boot": 3191,
      "cure": 3192,
      "dust": 3193,
      "ed": 3194,
      "ele": 3195,
      "ease": 3196,
      "fain": 3197,
      "feed": 3198,
      "gainst": 3199,
      "gross": 3200,
      "ghost": 3201,
      "length": 3202,
      "pains": 3203,
      "rip": 3204,
      "taken": 3205,
      "##eci": 3206,
      "##ib": 3207,
      "##oly": 3208,
      "##mn": 3209,
      "##mble": 3210,
      "##ald": 3211,
      "##AK": 3212,
      "##wh": 3213,
      "##woman": 3214,
      "thunder": 3215,
      "##though": 3216,
      "##ane": 3217,
      "##anley": 3218,
      "wicked": 3219,
      "nose": 3220,
      "sheep": 3221,
      "whilst": 3222,
      "wither": 3223,
      "stab": 3224,
      "stoop": 3225,
      "##idings": 3226,
      "##ENBURY": 3227,
      "##ased": 3228,
      "##rift": 3229,
      "##arden": 3230,
      "rel": 3231,
      "spake": 3232,
      "choice": 3233,
      "##ilia": 3234,
      "necess": 3235,
      "knave": 3236,
      "blest": 3237,
      "sirrah": 3238,
      "therein": 3239,
      "##AND": 3240,
      "arg": 3241,
      "##cians": 3242,
      "##OMAS": 3243,
      "twice": 3244,
      "twixt": 3245,
      "always": 3246,
      "leaves": 3247,
      "commend": 3248,
      "perceive": 3249,
      "prevent": 3250,
      "prevail": 3251,
      "##ealous": 3252,
      "repent": 3253,
      "consider": 3254,
      "Stanley": 3255,
      "subst": 3256,
      "BRAK": 3257,
      "import": 3258,
      "traitors": 3259,
      "##airs": 3260,
      "roar": 3261,
      "undert": 3262,
      "wrongs": 3263,
      "gift": 3264,
      "reasons": 3265,
      "green": 3266,
      "senate": 3267,
      "buried": 3268,
      "discover": 3269,
      "profess": 3270,
      "divine": 3271,
      "tyrann": 3272,
      "brows": 3273,
      "embrace": 3274,
      "Art": 3275,
      "Besides": 3276,
      "Prince": 3277,
      "protect": 3278,
      "sacred": 3279,
      "fiery": 3280,
      "occasion": 3281,
      "Caius": 3282,
      "innocent": 3283,
      "Mistress": 3284,
      "Verona": 3285,
      "simple": 3286,
      "safety": 3287,
      "Capulet": 3288,
      "Friar": 3289,
      "girl": 3290,
      "remedy": 3291,
      "Brother": 3292,
      "Please": 3293,
      "punish": 3294,
      "THOMAS": 3295,
      "BRAKENBURY": 3296,
      "?'": 3297,
      "AE": 3298,
      "Cousin": 3299,
      "DER": 3300,
      "Le": 3301,
      "OV": 3302,
      "Turn": 3303,
      "ach": 3304,
      "avo": 3305,
      "bark": 3306,
      "cre": 3307,
      "catch": 3308,
      "eag": 3309,
      "fath": 3310,
      "fury": 3311,
      "ga": 3312,
      "garden": 3313,
      "hors": 3314,
      "hunt": 3315,
      "jealous": 3316,
      "lang": 3317,
      "ora": 3318,
      "pin": 3319,
      "round": 3320,
      "rude": 3321,
      "sits": 3322,
      "troth": 3323,
      "went": 3324,
      "wings": 3325,
      "##cing": 3326,
      "##ien": 3327,
      "##iful": 3328,
      "##oe": 3329,
      "##oard": 3330,
      "##act": 3331,
      "##GOR": 3332,
      "##RESS": 3333,
      "##erset": 3334,
      "##orry": 3335,
      "##ining": 3336,
      "##inous": 3337,
      "##enius": 3338,
      "##thee": 3339,
      "##onoun": 3340,
      "##reed": 3341,
      "##edious": 3342,
      "inform": 3343,
      "shr": 3344,
      "##itol": 3345,
      "sto": 3346,
      "stones": 3347,
      "weeds": 3348,
      "##idd": 3349,
      "press": 3350,
      "##asc": 3351,
      "##eeth": 3352,
      "##ourish": 3353,
      "dec": 3354,
      "deceived": 3355,
      "##ract": 3356,
      "##ardine": 3357,
      "##very": 3358,
      "allow": 3359,
      "anger": 3360,
      "loy": 3361,
      "##ctise": 3362,
      "##olix": 3363,
      "troub": 3364,
      "used": 3365,
      "Myself": 3366,
      "mayor": 3367,
      "plot": 3368,
      "plague": 3369,
      "##rows": 3370,
      "sail": 3371,
      "##ONE": 3372,
      "##aper": 3373,
      "broken": 3374,
      "fright": 3375,
      "Without": 3376,
      "alas": 3377,
      "wherein": 3378,
      "design": 3379,
      "Wherein": 3380,
      "##aughters": 3381,
      "cloth": 3382,
      "claim": 3383,
      "adieu": 3384,
      "##STRESS": 3385,
      "prayer": 3386,
      "plead": 3387,
      "meaning": 3388,
      "##alty": 3389,
      "imm": 3390,
      "hollow": 3391,
      "fares": 3392,
      "fellows": 3393,
      "guilt": 3394,
      "smile": 3395,
      "tread": 3396,
      "treach": 3397,
      "empt": 3398,
      "GREGOR": 3399,
      "cares": 3400,
      "wanton": 3401,
      "assist": 3402,
      "deserve": 3403,
      "crack": 3404,
      "tempt": 3405,
      "silver": 3406,
      "silence": 3407,
      "##ERDONE": 3408,
      "MISTRESS": 3409,
      "Having": 3410,
      "Capitol": 3411,
      "despite": 3412,
      "delight": 3413,
      "castle": 3414,
      "practise": 3415,
      "absence": 3416,
      "cheek": 3417,
      "drop": 3418,
      "violent": 3419,
      "drawn": 3420,
      "approach": 3421,
      "trumpets": 3422,
      "storm": 3423,
      "Menenius": 3424,
      "Prithee": 3425,
      "belly": 3426,
      "ignorant": 3427,
      "Apoll": 3428,
      "fatal": 3429,
      "##ysic": 3430,
      "conquer": 3431,
      "renown": 3432,
      "rotten": 3433,
      "butcher": 3434,
      "Barnardine": 3435,
      "imprison": 3436,
      "Indeed": 3437,
      "Somerset": 3438,
      "DERBY": 3439,
      "OVERDONE": 3440,
      "langu": 3441,
      "oracle": 3442,
      "GREGORY": 3443,
      "Great": 3444,
      "Im": 3445,
      "Know": 3446,
      "OX": 3447,
      "Pis": 3448,
      "Pre": 3449,
      "Res": 3450,
      "Rivers": 3451,
      "SOM": 3452,
      "VAL": 3453,
      "aim": 3454,
      "aught": 3455,
      "ball": 3456,
      "cell": 3457,
      "cock": 3458,
      "cup": 3459,
      "cries": 3460,
      "det": 3461,
      "dur": 3462,
      "due": 3463,
      "fish": 3464,
      "gain": 3465,
      "hit": 3466,
      "motion": 3467,
      "nine": 3468,
      "number": 3469,
      "names": 3470,
      "pil": 3471,
      "pair": 3472,
      "pub": 3473,
      "pawn": 3474,
      "rasc": 3475,
      "sens": 3476,
      "six": 3477,
      "tune": 3478,
      "tidings": 3479,
      "tedious": 3480,
      "vantage": 3481,
      "wont": 3482,
      "##eous": 3483,
      "##pet": 3484,
      "##nat": 3485,
      "##haps": 3486,
      "##dain": 3487,
      "##draw": 3488,
      "##mion": 3489,
      "##ault": 3490,
      "##gle": 3491,
      "##bed": 3492,
      "##MON": 3493,
      "##FORD": 3494,
      "##inion": 3495,
      "##ening": 3496,
      "##ises": 3497,
      "##reh": 3498,
      "bew": 3499,
      "wives": 3500,
      "Three": 3501,
      "Thurs": 3502,
      "infect": 3503,
      "hel": 3504,
      "##cend": 3505,
      "##utes": 3506,
      "##chance": 3507,
      "shut": 3508,
      "shore": 3509,
      "shap": 3510,
      "whither": 3511,
      "##iment": 3512,
      "fors": 3513,
      "##itch": 3514,
      "stat": 3515,
      "steed": 3516,
      "stock": 3517,
      "stuff": 3518,
      "##alf": 3519,
      "asleep": 3520,
      "ones": 3521,
      "##amest": 3522,
      "dew": 3523,
      "##ards": 3524,
      "ange": 3525,
      "receive": 3526,
      "spr": 3527,
      "chief": 3528,
      "##ERIA": 3529,
      "conj": 3530,
      "faced": 3531,
      "amb": 3532,
      "envious": 3533,
      "shouldst": 3534,
      "outward": 3535,
      "RICHMON": 3536,
      "brain": 3537,
      "brook": 3538,
      "heav": 3539,
      "excell": 3540,
      "earn": 3541,
      "breed": 3542,
      "quench": 3543,
      "gentlewoman": 3544,
      "Mark": 3545,
      "##itting": 3546,
      "perish": 3547,
      "whole": 3548,
      "begins": 3549,
      "Still": 3550,
      "##ission": 3551,
      "resign": 3552,
      "farther": 3553,
      "follows": 3554,
      "thrust": 3555,
      "seeming": 3556,
      "passing": 3557,
      "woful": 3558,
      "devise": 3559,
      "fools": 3560,
      "followers": 3561,
      "deposed": 3562,
      "gives": 3563,
      "Hermion": 3564,
      "pleased": 3565,
      "advise": 3566,
      "disposition": 3567,
      "carry": 3568,
      "persu": 3569,
      "hanging": 3570,
      "borne": 3571,
      "spoken": 3572,
      "awake": 3573,
      "supper": 3574,
      "burth": 3575,
      "condu": 3576,
      "affairs": 3577,
      "lamb": 3578,
      "proper": 3579,
      "possible": 3580,
      "becomes": 3581,
      "nobles": 3582,
      "##ERSET": 3583,
      "garments": 3584,
      "prepare": 3585,
      "prepared": 3586,
      "express": 3587,
      "thrive": 3588,
      "sighs": 3589,
      "undone": 3590,
      "dreadful": 3591,
      "babe": 3592,
      "colour": 3593,
      "clear": 3594,
      "Christian": 3595,
      "damned": 3596,
      "Grey": 3597,
      "Into": 3598,
      "authority": 3599,
      "dinner": 3600,
      "Musician": 3601,
      "circ": 3602,
      "throat": 3603,
      "benefit": 3604,
      "ruin": 3605,
      "countenance": 3606,
      "Apollo": 3607,
      "OXFORD": 3608,
      "Pisa": 3609,
      "SOMERSET": 3610,
      "VALERIA": 3611,
      "Thursday": 3612,
      "RICHMOND": 3613,
      "Hermione": 3614,
      "Bra": 3615,
      "BUS": 3616,
      "Boy": 3617,
      "Bona": 3618,
      "Has": 3619,
      "Lea": 3620,
      "MAMIL": 3621,
      "MOW": 3622,
      "MOP": 3623,
      "Polix": 3624,
      "Rem": 3625,
      "Tailor": 3626,
      "Very": 3627,
      "band": 3628,
      "cens": 3629,
      "cunning": 3630,
      "daughters": 3631,
      "equ": 3632,
      "fash": 3633,
      "gage": 3634,
      "lend": 3635,
      "mourn": 3636,
      "paper": 3637,
      "rash": 3638,
      "san": 3639,
      "sorry": 3640,
      "tort": 3641,
      "taste": 3642,
      "teeth": 3643,
      "van": 3644,
      "wine": 3645,
      "wol": 3646,
      "wander": 3647,
      "yonder": 3648,
      "##og": 3649,
      "##oat": 3650,
      "##nown": 3651,
      "##yond": 3652,
      "##mon": 3653,
      "##after": 3654,
      "##LIUS": 3655,
      "##SA": 3656,
      "##HY": 3657,
      "##HOR": 3658,
      "##BRA": 3659,
      "##erence": 3660,
      "##erved": 3661,
      "##ene": 3662,
      "##ences": 3663,
      "##ising": 3664,
      "top": 3665,
      "belo": 3666,
      "belike": 3667,
      "##utation": 3668,
      "##lex": 3669,
      "##change": 3670,
      "##ldom": 3671,
      "meant": 3672,
      "##itude": 3673,
      "##oots": 3674,
      "##enture": 3675,
      "weight": 3676,
      "prize": 3677,
      "pronoun": 3678,
      "lip": 3679,
      "##usion": 3680,
      "sup": 3681,
      "##room": 3682,
      "spend": 3683,
      "speci": 3684,
      "##ello": 3685,
      "##ouses": 3686,
      "##ants": 3687,
      "##ETER": 3688,
      "goodness": 3689,
      "bond": 3690,
      "trans": 3691,
      "sway": 3692,
      "seeing": 3693,
      "##ondello": 3694,
      "kingly": 3695,
      "unnat": 3696,
      "##ortion": 3697,
      "Help": 3698,
      "##imely": 3699,
      "twelve": 3700,
      "exile": 3701,
      "flight": 3702,
      "quit": 3703,
      "parts": 3704,
      "partic": 3705,
      "peril": 3706,
      "perfect": 3707,
      "wrath": 3708,
      "##udge": 3709,
      "appar": 3710,
      "##iteous": 3711,
      "lean": 3712,
      "legs": 3713,
      "until": 3714,
      "affect": 3715,
      "##ancy": 3716,
      "##anced": 3717,
      "##swain": 3718,
      "keeps": 3719,
      "access": 3720,
      "accus": 3721,
      "accuse": 3722,
      "beheld": 3723,
      "empl": 3724,
      "##eys": 3725,
      "room": 3726,
      "curst": 3727,
      "pleasant": 3728,
      "humbly": 3729,
      "advantage": 3730,
      "courtesy": 3731,
      "##ounty": 3732,
      "denied": 3733,
      "spirits": 3734,
      "remembr": 3735,
      "Two": 3736,
      "##unts": 3737,
      "Biondello": 3738,
      "Happ": 3739,
      "betwixt": 3740,
      "resolve": 3741,
      "resolved": 3742,
      "corrupt": 3743,
      "delay": 3744,
      "vex": 3745,
      "accept": 3746,
      "wedding": 3747,
      "Beseech": 3748,
      "owe": 3749,
      "penit": 3750,
      "hurt": 3751,
      "protest": 3752,
      "palace": 3753,
      "physic": 3754,
      "forsworn": 3755,
      "Believe": 3756,
      "Officer": 3757,
      "shadow": 3758,
      "solemn": 3759,
      "continue": 3760,
      "petition": 3761,
      "several": 3762,
      "contrary": 3763,
      "EXETER": 3764,
      "neighbour": 3765,
      "ABHOR": 3766,
      "miserable": 3767,
      "horses": 3768,
      "empty": 3769,
      "burthen": 3770,
      "circum": 3771,
      "BUSHY": 3772,
      "Leave": 3773,
      "MAMILLIUS": 3774,
      "MOWBRA": 3775,
      "MOPSA": 3776,
      "Polixenes": 3777,
      "sanct": 3778,
      "beloved": 3779,
      "employ": 3780,
      "ABHORSON": 3781,
      "MOWBRAY": 3782,
      "AR": 3783,
      "Bear": 3784,
      "BAL": 3785,
      "BISHOP": 3786,
      "Cal": 3787,
      "Dear": 3788,
      "Father": 3789,
      "Jack": 3790,
      "Might": 3791,
      "None": 3792,
      "Ph": 3793,
      "PERC": 3794,
      "Ret": 3795,
      "Right": 3796,
      "Rep": 3797,
      "Wid": 3798,
      "bas": 3799,
      "bot": 3800,
      "dies": 3801,
      "dign": 3802,
      "dag": 3803,
      "east": 3804,
      "fee": 3805,
      "fra": 3806,
      "fro": 3807,
      "gate": 3808,
      "hid": 3809,
      "hark": 3810,
      "houses": 3811,
      "lin": 3812,
      "large": 3813,
      "mill": 3814,
      "miss": 3815,
      "making": 3816,
      "naked": 3817,
      "od": 3818,
      "painted": 3819,
      "piteous": 3820,
      "rt": 3821,
      "ring": 3822,
      "rose": 3823,
      "rule": 3824,
      "sy": 3825,
      "song": 3826,
      "sep": 3827,
      "scept": 3828,
      "sooth": 3829,
      "tut": 3830,
      "tide": 3831,
      "table": 3832,
      "wing": 3833,
      "wood": 3834,
      "wot": 3835,
      "wond": 3836,
      "##pic": 3837,
      "##sp": 3838,
      "##sa": 3839,
      "##oes": 3840,
      "##mity": 3841,
      "##que": 3842,
      "##CH": 3843,
      "##erve": 3844,
      "##ency": 3845,
      "tomb": 3846,
      "##rees": 3847,
      "beyond": 3848,
      "wits": 3849,
      "Thr": 3850,
      "##sequ": 3851,
      "heed": 3852,
      "##uted": 3853,
      "sharp": 3854,
      "whiles": 3855,
      "mend": 3856,
      "##urance": 3857,
      "step": 3858,
      "story": 3859,
      "weigh": 3860,
      "prick": 3861,
      "##ades": 3862,
      "##ales": 3863,
      "##tern": 3864,
      "suck": 3865,
      "rever": 3866,
      "reward": 3867,
      "spare": 3868,
      "chide": 3869,
      "##ustice": 3870,
      "comb": 3871,
      "fail": 3872,
      "faces": 3873,
      "amen": 3874,
      "##oles": 3875,
      "swallow": 3876,
      "hereafter": 3877,
      "theirs": 3878,
      "##ishop": 3879,
      "worn": 3880,
      "##igence": 3881,
      "##cio": 3882,
      "##cian": 3883,
      "##arel": 3884,
      "##akest": 3885,
      "diss": 3886,
      "hearted": 3887,
      "alter": 3888,
      "Nothing": 3889,
      "expect": 3890,
      "flies": 3891,
      "looking": 3892,
      "Marshal": 3893,
      "fairly": 3894,
      "slow": 3895,
      "##outs": 3896,
      "seest": 3897,
      "called": 3898,
      "perpet": 3899,
      "prey": 3900,
      "ways": 3901,
      "apparel": 3902,
      "##THAS": 3903,
      "contract": 3904,
      "French": 3905,
      "Thanks": 3906,
      "remains": 3907,
      "##shire": 3908,
      "intent": 3909,
      "crowns": 3910,
      "Only": 3911,
      "courage": 3912,
      "compass": 3913,
      "hopes": 3914,
      "ends": 3915,
      "endure": 3916,
      "purch": 3917,
      "folly": 3918,
      "griev": 3919,
      "needful": 3920,
      "tremb": 3921,
      "bodies": 3922,
      "services": 3923,
      "joys": 3924,
      "joyful": 3925,
      "mistake": 3926,
      "fortunes": 3927,
      "natural": 3928,
      "##verend": 3929,
      "curr": 3930,
      "happiness": 3931,
      "misery": 3932,
      "turns": 3933,
      "attempt": 3934,
      "opinion": 3935,
      "assurance": 3936,
      "commanded": 3937,
      "senators": 3938,
      "Comm": 3939,
      "wounded": 3940,
      "temper": 3941,
      "discontent": 3942,
      "market": 3943,
      "Mayor": 3944,
      "waters": 3945,
      "terror": 3946,
      "shortly": 3947,
      "drops": 3948,
      "groan": 3949,
      "bleed": 3950,
      "dares": 3951,
      "colours": 3952,
      "complain": 3953,
      "duked": 3954,
      "curses": 3955,
      "cursed": 3956,
      "princes": 3957,
      "princess": 3958,
      "calm": 3959,
      "government": 3960,
      "instruct": 3961,
      "sometime": 3962,
      "sometimes": 3963,
      "hatred": 3964,
      "instrument": 3965,
      "obedience": 3966,
      "counterfeit": 3967,
      "credit": 3968,
      "wreck": 3969,
      "undertake": 3970,
      "AEd": 3971,
      "language": 3972,
      "durst": 3973,
      "public": 3974,
      "excellent": 3975,
      "unnatural": 3976,
      "remembrance": 3977,
      "ARCH": 3978,
      "BALTHAS": 3979,
      "PERCY": 3980,
      "Widow": 3981,
      "##picion": 3982,
      "dukedom": 3983,
      "BALTHASAR": 3984,
      "?--": 3985,
      "App": 3986,
      "Amen": 3987,
      "Br": 3988,
      "Boat": 3989,
      "Co": 3990,
      "Dorse": 3991,
      "Four": 3992,
      "Lay": 3993,
      "Long": 3994,
      "Nap": 3995,
      "Pat": 3996,
      "Page": 3997,
      "Post": 3998,
      "RO": 3999,
      "Ros": 4000,
      "Se": 4001,
      "Set": 4002,
      "Sold": 4003,
      "Save": 4004,
      "Tit": 4005,
      "Worthy": 4006,
      "bare": 4007,
      "cease": 4008,
      "camest": 4009,
      "dow": 4010,
      "diff": 4011,
      "dying": 4012,
      "fle": 4013,
      "fame": 4014,
      "host": 4015,
      "journ": 4016,
      "kin": 4017,
      "led": 4018,
      "mere": 4019,
      "mag": 4020,
      "mile": 4021,
      "maint": 4022,
      "murderer": 4023,
      "nought": 4024,
      "odd": 4025,
      "pol": 4026,
      "purse": 4027,
      "powers": 4028,
      "real": 4029,
      "rush": 4030,
      "sink": 4031,
      "sins": 4032,
      "test": 4033,
      "tap": 4034,
      "vouch": 4035,
      "##rain": 4036,
      "##rous": 4037,
      "##tled": 4038,
      "##ny": 4039,
      "##fer": 4040,
      "##uing": 4041,
      "##uary": 4042,
      "##hor": 4043,
      "##head": 4044,
      "##leness": 4045,
      "##yard": 4046,
      "##ker": 4047,
      "##vours": 4048,
      "##wise": 4049,
      "##SS": 4050,
      "##CAS": 4051,
      "##FOL": 4052,
      "thief": 4053,
      "##ores": 4054,
      "##atic": 4055,
      "##ination": 4056,
      "##aries": 4057,
      "##isper": 4058,
      "##think": 4059,
      "##omf": 4060,
      "##rease": 4061,
      "Those": 4062,
      "haz": 4063,
      "shun": 4064,
      "shape": 4065,
      "isle": 4066,
      "island": 4067,
      "##ita": 4068,
      "Whither": 4069,
      "store": 4070,
      "stol": 4071,
      "strew": 4072,
      "its": 4073,
      "##idence": 4074,
      "##rib": 4075,
      "##ourage": 4076,
      "##uses": 4077,
      "revol": 4078,
      "reverend": 4079,
      "spite": 4080,
      "chair": 4081,
      "choler": 4082,
      "##ills": 4083,
      "##illing": 4084,
      "knight": 4085,
      "knife": 4086,
      "frame": 4087,
      "comest": 4088,
      "manners": 4089,
      "conc": 4090,
      "amazed": 4091,
      "##ieved": 4092,
      "block": 4093,
      "##olute": 4094,
      "boar": 4095,
      "trade": 4096,
      "##ument": 4097,
      "ung": 4098,
      "enmity": 4099,
      "Young": 4100,
      "pla": 4101,
      "disdain": 4102,
      "brings": 4103,
      "branch": 4104,
      "bred": 4105,
      "qual": 4106,
      "friendly": 4107,
      "March": 4108,
      "slay": 4109,
      "##urnish": 4110,
      "seize": 4111,
      "advers": 4112,
      "##ips": 4113,
      "write": 4114,
      "scope": 4115,
      "scene": 4116,
      "appreh": 4117,
      "repair": 4118,
      "armour": 4119,
      "##ression": 4120,
      "##oses": 4121,
      "untimely": 4122,
      "##ctions": 4123,
      "intell": 4124,
      "compan": 4125,
      "slept": 4126,
      "accord": 4127,
      "glorious": 4128,
      "smooth": 4129,
      "behalf": 4130,
      "imposs": 4131,
      "passion": 4132,
      "passage": 4133,
      "rob": 4134,
      "rogue": 4135,
      "maiden": 4136,
      "virg": 4137,
      "hateful": 4138,
      "##uteous": 4139,
      "instant": 4140,
      "serves": 4141,
      "wants": 4142,
      "Gentlemen": 4143,
      "NORFOL": 4144,
      "winds": 4145,
      "grey": 4146,
      "deserves": 4147,
      "freely": 4148,
      "##ified": 4149,
      "build": 4150,
      "supposed": 4151,
      "contented": 4152,
      "monstr": 4153,
      "Lucio": 4154,
      "captain": 4155,
      "grows": 4156,
      "granted": 4157,
      "increase": 4158,
      "terms": 4159,
      "resolution": 4160,
      "leads": 4161,
      "Volsce": 4162,
      "sky": 4163,
      "praise": 4164,
      "absent": 4165,
      "privile": 4166,
      "venom": 4167,
      "direct": 4168,
      "respected": 4169,
      "oppos": 4170,
      "pitch": 4171,
      "Exeter": 4172,
      "torment": 4173,
      "drums": 4174,
      "unknown": 4175,
      "prosperous": 4176,
      "DORCAS": 4177,
      "suspicion": 4178,
      "##appy": 4179,
      "debt": 4180,
      "Sicilia": 4181,
      "degree": 4182,
      "fathers": 4183,
      "treacherous": 4184,
      "earnest": 4185,
      "conduct": 4186,
      "particular": 4187,
      "dagger": 4188,
      "odds": 4189,
      "sceptre": 4190,
      "##olesome": 4191,
      "Boatswain": 4192,
      "Dorset": 4193,
      "Naples": 4194,
      "ROSS": 4195,
      "realm": 4196,
      "NORFOLK": 4197,
      "monstrous": 4198,
      "ALO": 4199,
      "Ber": 4200,
      "Ben": 4201,
      "Bre": 4202,
      "Bring": 4203,
      "Came": 4204,
      "Down": 4205,
      "FERD": 4206,
      "Froth": 4207,
      "Ghost": 4208,
      "Hunts": 4209,
      "Ire": 4210,
      "Mil": 4211,
      "Pomf": 4212,
      "Rat": 4213,
      "Rom": 4214,
      "Read": 4215,
      "Sm": 4216,
      "Son": 4217,
      "Ye": 4218,
      "able": 4219,
      "bird": 4220,
      "bury": 4221,
      "boots": 4222,
      "da": 4223,
      "dri": 4224,
      "dig": 4225,
      "dress": 4226,
      "esc": 4227,
      "fig": 4228,
      "fare": 4229,
      "jew": 4230,
      "lun": 4231,
      "loud": 4232,
      "lark": 4233,
      "mor": 4234,
      "messenger": 4235,
      "pu": 4236,
      "pot": 4237,
      "pure": 4238,
      "ri": 4239,
      "rul": 4240,
      "rap": 4241,
      "ruth": 4242,
      "sore": 4243,
      "sell": 4244,
      "squ": 4245,
      "south": 4246,
      "tame": 4247,
      "taught": 4248,
      "tied": 4249,
      "vows": 4250,
      "vault": 4251,
      "west": 4252,
      "waking": 4253,
      "##rust": 4254,
      "##ek": 4255,
      "##eat": 4256,
      "##cli": 4257,
      "##pr": 4258,
      "##ses": 4259,
      "##iate": 4260,
      "##iven": 4261,
      "##ipt": 4262,
      "##oin": 4263,
      "##oved": 4264,
      "##na": 4265,
      "##uce": 4266,
      "##he": 4267,
      "##av": 4268,
      "##gu": 4269,
      "##GH": 4270,
      "##bow": 4271,
      "##just": 4272,
      "##NS": 4273,
      "##SET": 4274,
      "##RR": 4275,
      "thorn": 4276,
      "third": 4277,
      "##ature": 4278,
      "##essel": 4279,
      "##ense": 4280,
      "##rey": 4281,
      "beard": 4282,
      "bethink": 4283,
      "##semb": 4284,
      "##irt": 4285,
      "whisper": 4286,
      "mel": 4287,
      "melt": 4288,
      "##itable": 4289,
      "stroke": 4290,
      "stamp": 4291,
      "##athe": 4292,
      "weather": 4293,
      "wept": 4294,
      "lion": 4295,
      "##INAND": 4296,
      "##aline": 4297,
      "ash": 4298,
      "##ric": 4299,
      "##ricians": 4300,
      "willing": 4301,
      "willingly": 4302,
      "##rand": 4303,
      "sull": 4304,
      "##andal": 4305,
      "rej": 4306,
      "spur": 4307,
      "chast": 4308,
      "##ote": 4309,
      "##arts": 4310,
      "##ended": 4311,
      "conce": 4312,
      "conceit": 4313,
      "constant": 4314,
      "swell": 4315,
      "lovely": 4316,
      "unless": 4317,
      "unjust": 4318,
      "ens": 4319,
      "enforce": 4320,
      "##ember": 4321,
      "muster": 4322,
      "shoulder": 4323,
      "##elt": 4324,
      "provo": 4325,
      "alike": 4326,
      "aboard": 4327,
      "abhor": 4328,
      "tells": 4329,
      "whereof": 4330,
      "warlike": 4331,
      "fears": 4332,
      "hasty": 4333,
      "##ized": 4334,
      "greatest": 4335,
      "clo": 4336,
      "clam": 4337,
      "adver": 4338,
      "standing": 4339,
      "committed": 4340,
      "commission": 4341,
      "perj": 4342,
      "perforce": 4343,
      "wrought": 4344,
      "north": 4345,
      "bearing": 4346,
      "contempt": 4347,
      "##liament": 4348,
      "begun": 4349,
      "Stri": 4350,
      "peers": 4351,
      "##ival": 4352,
      "accused": 4353,
      "kindly": 4354,
      "puts": 4355,
      "grieve": 4356,
      "charged": 4357,
      "county": 4358,
      "smiles": 4359,
      "finds": 4360,
      "trees": 4361,
      "holds": 4362,
      "robb": 4363,
      "afterno": 4364,
      "##ruly": 4365,
      "GREEN": 4366,
      "braw": 4367,
      "giving": 4368,
      "witch": 4369,
      "advice": 4370,
      "advised": 4371,
      "soundly": 4372,
      "sends": 4373,
      "assured": 4374,
      "revenged": 4375,
      "hanged": 4376,
      "desert": 4377,
      "afford": 4378,
      "affli": 4379,
      "parliament": 4380,
      "Play": 4381,
      "hardly": 4382,
      "silent": 4383,
      "record": 4384,
      "nobly": 4385,
      "profit": 4386,
      "garland": 4387,
      "single": 4388,
      "sickness": 4389,
      "wait": 4390,
      "pieces": 4391,
      "waste": 4392,
      "Until": 4393,
      "veins": 4394,
      "forbear": 4395,
      "thrice": 4396,
      "groans": 4397,
      "raise": 4398,
      "About": 4399,
      "darest": 4400,
      "estate": 4401,
      "##erns": 4402,
      "rebell": 4403,
      "TYRR": 4404,
      "destroy": 4405,
      "torch": 4406,
      "urged": 4407,
      "affections": 4408,
      "haply": 4409,
      "streets": 4410,
      "instruments": 4411,
      "DORSET": 4412,
      "famous": 4413,
      "lusty": 4414,
      "Conspir": 4415,
      "elder": 4416,
      "study": 4417,
      "gently": 4418,
      "arrived": 4419,
      "Supp": 4420,
      "protector": 4421,
      "avoid": 4422,
      "stopp": 4423,
      "loyal": 4424,
      "imprisonment": 4425,
      "rascal": 4426,
      "helm": 4427,
      "fashion": 4428,
      "special": 4429,
      "circumst": 4430,
      "sanctuary": 4431,
      "reverence": 4432,
      "perpetual": 4433,
      "grievous": 4434,
      "AEdile": 4435,
      "Rosaline": 4436,
      "Soldier": 4437,
      "Titus": 4438,
      "maintain": 4439,
      "virgin": 4440,
      "ALONS": 4441,
      "FERDINAND": 4442,
      "Huntsman": 4443,
      "Ireland": 4444,
      "Pomfret": 4445,
      "Ratcli": 4446,
      "Romans": 4447,
      "daily": 4448,
      "afternoon": 4449,
      "TYRREL": 4450,
      "ALONSO": 4451,
      "Ratcliff": 4452,
      ";--": 4453,
      "Acc": 4454,
      "Cond": 4455,
      "Der": 4456,
      "Draw": 4457,
      "Fare": 4458,
      "Fair": 4459,
      "La": 4460,
      "Makes": 4461,
      "Rather": 4462,
      "Sal": 4463,
      "Six": 4464,
      "Tar": 4465,
      "Up": 4466,
      "Vien": 4467,
      "Wr": 4468,
      "apt": 4469,
      "aunt": 4470,
      "ba": 4471,
      "bal": 4472,
      "bade": 4473,
      "cere": 4474,
      "caught": 4475,
      "dim": 4476,
      "food": 4477,
      "fun": 4478,
      "feet": 4479,
      "fires": 4480,
      "fancy": 4481,
      "hie": 4482,
      "horn": 4483,
      "lent": 4484,
      "mir": 4485,
      "mult": 4486,
      "nail": 4487,
      "oak": 4488,
      "port": 4489,
      "pound": 4490,
      "ran": 4491,
      "rain": 4492,
      "rust": 4493,
      "rare": 4494,
      "rail": 4495,
      "reach": 4496,
      "sal": 4497,
      "sear": 4498,
      "sire": 4499,
      "salt": 4500,
      "snow": 4501,
      "tall": 4502,
      "tro": 4503,
      "tree": 4504,
      "tail": 4505,
      "tarry": 4506,
      "task": 4507,
      "vessel": 4508,
      "yond": 4509,
      "yoke": 4510,
      "##rrel": 4511,
      "##com": 4512,
      "##ping": 4513,
      "##pass": 4514,
      "##iam": 4515,
      "##iving": 4516,
      "##fold": 4517,
      "##hy": 4518,
      "##ders": 4519,
      "##dig": 4520,
      "##mish": 4521,
      "##kin": 4522,
      "##aly": 4523,
      "##groom": 4524,
      "##bl": 4525,
      "##bear": 4526,
      "##zz": 4527,
      "thick": 4528,
      "##erity": 4529,
      "##ative": 4530,
      "##iny": 4531,
      "##ints": 4532,
      "##esar": 4533,
      "##enant": 4534,
      "##isbury": 4535,
      "##omach": 4536,
      "inch": 4537,
      "inqu": 4538,
      "habit": 4539,
      "##utch": 4540,
      "##utenant": 4541,
      "shield": 4542,
      "##etite": 4543,
      "whip": 4544,
      "wholesome": 4545,
      "mem": 4546,
      "##urt": 4547,
      "forced": 4548,
      "forfeit": 4549,
      "##itation": 4550,
      "sting": 4551,
      "stro": 4552,
      "stick": 4553,
      "stout": 4554,
      "stretch": 4555,
      "stomach": 4556,
      "##eaf": 4557,
      "##aded": 4558,
      "##alus": 4559,
      "##ested": 4560,
      "##ams": 4561,
      "##aming": 4562,
      "deceit": 4563,
      "##raced": 4564,
      "butt": 4565,
      "alliance": 4566,
      "sue": 4567,
      "lock": 4568,
      "rece": 4569,
      "reck": 4570,
      "sple": 4571,
      "##ellow": 4572,
      "cher": 4573,
      "chase": 4574,
      "knaves": 4575,
      "froward": 4576,
      "##ulf": 4577,
      "##ulate": 4578,
      "##nty": 4579,
      "manif": 4580,
      "blunt": 4581,
      "Forg": 4582,
      "saying": 4583,
      "unst": 4584,
      "##ung": 4585,
      "##inder": 4586,
      "##orted": 4587,
      "##LIS": 4588,
      "##ignty": 4589,
      "graves": 4590,
      "ago": 4591,
      "agree": 4592,
      "points": 4593,
      "disch": 4594,
      "twain": 4595,
      "brid": 4596,
      "alack": 4597,
      "although": 4598,
      "Noble": 4599,
      "abide": 4600,
      "exerc": 4601,
      "exchange": 4602,
      "##ages": 4603,
      "Soft": 4604,
      "flood": 4605,
      "flourish": 4606,
      "desires": 4607,
      "descend": 4608,
      "Marian": 4609,
      "fairer": 4610,
      "fairest": 4611,
      "slaves": 4612,
      "betray": 4613,
      "betimes": 4614,
      "sees": 4615,
      "newly": 4616,
      "clim": 4617,
      "parting": 4618,
      "partly": 4619,
      "ado": 4620,
      "commons": 4621,
      "wrink": 4622,
      "##ullus": 4623,
      "appeal": 4624,
      "appetite": 4625,
      "repeal": 4626,
      "begu": 4627,
      "household": 4628,
      "##osing": 4629,
      "image": 4630,
      "merit": 4631,
      "complex": 4632,
      "sets": 4633,
      "resist": 4634,
      "keeper": 4635,
      "Proceed": 4636,
      "accomp": 4637,
      "accident": 4638,
      "powerful": 4639,
      "charac": 4640,
      "conference": 4641,
      "smell": 4642,
      "treasure": 4643,
      "tremble": 4644,
      "breathed": 4645,
      "##clam": 4646,
      "##forced": 4647,
      "mistrust": 4648,
      "besides": 4649,
      "coff": 4650,
      "##iety": 4651,
      "boys": 4652,
      "native": 4653,
      "devotion": 4654,
      "##ruction": 4655,
      "meeting": 4656,
      "patricians": 4657,
      "brace": 4658,
      "weeps": 4659,
      "counc": 4660,
      "below": 4661,
      "forgive": 4662,
      "disple": 4663,
      "falsehood": 4664,
      "Tyrrel": 4665,
      "sovereignty": 4666,
      "virtues": 4667,
      "assure": 4668,
      "Twere": 4669,
      "craft": 4670,
      "oaths": 4671,
      "wide": 4672,
      "faithful": 4673,
      "Cannot": 4674,
      "surely": 4675,
      "capt": 4676,
      "growing": 4677,
      "heirs": 4678,
      "recon": 4679,
      "joint": 4680,
      "feeling": 4681,
      "distress": 4682,
      "secure": 4683,
      "beholding": 4684,
      "corre": 4685,
      "prett": 4686,
      "##umbling": 4687,
      "books": 4688,
      "mouths": 4689,
      "regal": 4690,
      "regard": 4691,
      "weakness": 4692,
      "barren": 4693,
      "raised": 4694,
      "bridegroom": 4695,
      "complaint": 4696,
      "##eeming": 4697,
      "gallant": 4698,
      "##ancholy": 4699,
      "##grim": 4700,
      "defence": 4701,
      "Conf": 4702,
      "beasts": 4703,
      "trumpet": 4704,
      "Caesar": 4705,
      "offended": 4706,
      "forswear": 4707,
      "disgrace": 4708,
      "season": 4709,
      "unkind": 4710,
      "Anti": 4711,
      "tempest": 4712,
      "suspect": 4713,
      "##soever": 4714,
      "obedient": 4715,
      "entertainment": 4716,
      "Disp": 4717,
      "Flor": 4718,
      "determined": 4719,
      "unhappy": 4720,
      "holp": 4721,
      "wealth": 4722,
      "ripe": 4723,
      "stabb": 4724,
      "substit": 4725,
      "tyranny": 4726,
      "renowned": 4727,
      "ballad": 4728,
      "pilgrim": 4729,
      "Remember": 4730,
      "equal": 4731,
      "apparent": 4732,
      "penitent": 4733,
      "dignity": 4734,
      "current": 4735,
      "Commend": 4736,
      "Fourth": 4737,
      "dowry": 4738,
      "journey": 4739,
      "according": 4740,
      "impossible": 4741,
      "Milan": 4742,
      "ruled": 4743,
      "melancholy": 4744,
      "conceal": 4745,
      "rebellion": 4746,
      "Derby": 4747,
      "Salisbury": 4748,
      "Vienna": 4749,
      ".--": 4750,
      "Af": 4751,
      "Aw": 4752,
      "AD": 4753,
      "Bush": 4754,
      "Cle": 4755,
      "Cry": 4756,
      "County": 4757,
      "Each": 4758,
      "Fo": 4759,
      "FRO": 4760,
      "Get": 4761,
      "Him": 4762,
      "Hail": 4763,
      "Jes": 4764,
      "Kn": 4765,
      "Lart": 4766,
      "Lie": 4767,
      "Min": 4768,
      "Many": 4769,
      "Ra": 4770,
      "Sound": 4771,
      "Time": 4772,
      "Tush": 4773,
      "Tullus": 4774,
      "Ven": 4775,
      "Val": 4776,
      "Vill": 4777,
      "WIL": 4778,
      "ah": 4779,
      "ax": 4780,
      "bon": 4781,
      "bir": 4782,
      "bri": 4783,
      "bag": 4784,
      "bud": 4785,
      "buck": 4786,
      "cat": 4787,
      "crow": 4788,
      "cost": 4789,
      "civ": 4790,
      "deaf": 4791,
      "fift": 4792,
      "fierce": 4793,
      "furnish": 4794,
      "goose": 4795,
      "gaze": 4796,
      "hor": 4797,
      "hated": 4798,
      "id": 4799,
      "iron": 4800,
      "jot": 4801,
      "mess": 4802,
      "mood": 4803,
      "mirth": 4804,
      "nap": 4805,
      "ped": 4806,
      "path": 4807,
      "pause": 4808,
      "push": 4809,
      "pierce": 4810,
      "rear": 4811,
      "ride": 4812,
      "reap": 4813,
      "sn": 4814,
      "surp": 4815,
      "takes": 4816,
      "taunt": 4817,
      "var": 4818,
      "vol": 4819,
      "wea": 4820,
      "ward": 4821,
      "wake": 4822,
      "wink": 4823,
      "wakes": 4824,
      "yes": 4825,
      "##res": 4826,
      "##rown": 4827,
      "##rate": 4828,
      "##ratch": 4829,
      "##con": 4830,
      "##cate": 4831,
      "##cceed": 4832,
      "##pare": 4833,
      "##tic": 4834,
      "##teen": 4835,
      "##ser": 4836,
      "##same": 4837,
      "##nes": 4838,
      "##upt": 4839,
      "##den": 4840,
      "##dita": 4841,
      "##lar": 4842,
      "##lous": 4843,
      "##more": 4844,
      "##go": 4845,
      "##weal": 4846,
      "##bation": 4847,
      "##IT": 4848,
      "##UGH": 4849,
      "##EOM": 4850,
      "##RIAN": 4851,
      "thir": 4852,
      "thread": 4853,
      "##erves": 4854,
      "##ories": 4855,
      "##inct": 4856,
      "##espass": 4857,
      "##arth": 4858,
      "##arch": 4859,
      "##arest": 4860,
      "##enced": 4861,
      "toad": 4862,
      "toil": 4863,
      "##onation": 4864,
      "##omen": 4865,
      "##stery": 4866,
      "##edge": 4867,
      "mystery": 4868,
      "inher": 4869,
      "infection": 4870,
      "shear": 4871,
      "whit": 4872,
      "wheel": 4873,
      "##uries": 4874,
      "##imble": 4875,
      "##iter": 4876,
      "Whether": 4877,
      "withdraw": 4878,
      "ste": 4879,
      "lift": 4880,
      "liken": 4881,
      "##ample": 4882,
      "dove": 4883,
      "##ourse": 4884,
      "decl": 4885,
      "super": 4886,
      "suitor": 4887,
      "succeed": 4888,
      "##roll": 4889,
      "anointed": 4890,
      "lover": 4891,
      "lovest": 4892,
      "spl": 4893,
      "spy": 4894,
      "spit": 4895,
      "spect": 4896,
      "chall": 4897,
      "chaste": 4898,
      "##illy": 4899,
      "negle": 4900,
      "knot": 4901,
      "##ctor": 4902,
      "##ulch": 4903,
      "##seless": 4904,
      "manage": 4905,
      "const": 4906,
      "fawn": 4907,
      "##ieves": 4908,
      "godd": 4909,
      "Fort": 4910,
      "##LOUGH": 4911,
      "train": 4912,
      "trespass": 4913,
      "swain": 4914,
      "##icy": 4915,
      "##ical": 4916,
      "##icles": 4917,
      "##umble": 4918,
      "##ongst": 4919,
      "eng": 4920,
      "graced": 4921,
      "tooth": 4922,
      "##ecary": 4923,
      "deaths": 4924,
      "twill": 4925,
      "heartily": 4926,
      "proclam": 4927,
      "marks": 4928,
      "##irect": 4929,
      "offic": 4930,
      "abused": 4931,
      "flow": 4932,
      "descent": 4933,
      "league": 4934,
      "warri": 4935,
      "slip": 4936,
      "Behold": 4937,
      "seldom": 4938,
      "greatness": 4939,
      "stranger": 4940,
      "Italy": 4941,
      "parted": 4942,
      "##itten": 4943,
      "heavenly": 4944,
      "perhaps": 4945,
      "sweeter": 4946,
      "scold": 4947,
      "scape": 4948,
      "scandal": 4949,
      "Anon": 4950,
      "appointed": 4951,
      "grat": 4952,
      "grain": 4953,
      "repose": 4954,
      "remorse": 4955,
      "remove": 4956,
      "removed": 4957,
      "begg": 4958,
      "began": 4959,
      "dearly": 4960,
      "dearest": 4961,
      "accursed": 4962,
      "younger": 4963,
      "youngest": 4964,
      "CLEOM": 4965,
      "subtle": 4966,
      "William": 4967,
      "confirm": 4968,
      "minds": 4969,
      "rights": 4970,
      "impat": 4971,
      "sorrows": 4972,
      "mischance": 4973,
      "object": 4974,
      "lesser": 4975,
      "Uncle": 4976,
      "griefs": 4977,
      "belong": 4978,
      "pleasing": 4979,
      "sleeping": 4980,
      "human": 4981,
      "adventure": 4982,
      "dispers": 4983,
      "served": 4984,
      "harsh": 4985,
      "retire": 4986,
      "countrymen": 4987,
      "careless": 4988,
      "ope": 4989,
      "hangs": 4990,
      "windows": 4991,
      "Didst": 4992,
      "beauteous": 4993,
      "craves": 4994,
      "yielded": 4995,
      "supply": 4996,
      "burst": 4997,
      "monument": 4998,
      "commonweal": 4999,
      "sights": 5000,
      "suffic": 5001,
      "visage": 5002,
      "wooing": 5003,
      "trusty": 5004,
      "stronger": 5005,
      "executed": 5006,
      "redress": 5007,
      "infant": 5008,
      "term": 5009,
      "absolute": 5010,
      "plainly": 5011,
      "burning": 5012,
      "fourteen": 5013,
      "selfsame": 5014,
      "direction": 5015,
      "frowns": 5016,
      "servants": 5017,
      "satisfy": 5018,
      "blemish": 5019,
      "estim": 5020,
      "babes": 5021,
      "Perdita": 5022,
      "drag": 5023,
      "triumphant": 5024,
      "occup": 5025,
      "foreign": 5026,
      "writing": 5027,
      "executioner": 5028,
      "innoc": 5029,
      "instruction": 5030,
      "extremity": 5031,
      "feather": 5032,
      "disgu": 5033,
      "shadows": 5034,
      "prophet": 5035,
      "ignorance": 5036,
      "bigger": 5037,
      "refuse": 5038,
      "uncles": 5039,
      "modest": 5040,
      "modesty": 5041,
      "determine": 5042,
      "hungry": 5043,
      "Betw": 5044,
      "Better": 5045,
      "shrewd": 5046,
      "dismal": 5047,
      "dismiss": 5048,
      "wager": 5049,
      "acquaint": 5050,
      "edge": 5051,
      "##what": 5052,
      "eagle": 5053,
      "shroud": 5054,
      "clothes": 5055,
      "steeds": 5056,
      "angel": 5057,
      "wolf": 5058,
      "pronounce": 5059,
      "Happy": 5060,
      "Return": 5061,
      "sepulch": 5062,
      "wondrous": 5063,
      "##safe": 5064,
      "Through": 5065,
      "##ternal": 5066,
      "purchase": 5067,
      "trembling": 5068,
      "bleeding": 5069,
      "policy": 5070,
      "adversaries": 5071,
      "privilege": 5072,
      "opposite": 5073,
      "sullen": 5074,
      "Conspirator": 5075,
      "Laur": 5076,
      "memory": 5077,
      "strokes": 5078,
      "exercise": 5079,
      "Mariana": 5080,
      "ADRIAN": 5081,
      "Bushy": 5082,
      "Follow": 5083,
      "FROTH": 5084,
      "Lartius": 5085,
      "WILLOUGH": 5086,
      "axe": 5087,
      "civil": 5088,
      "thirty": 5089,
      "CLEOMENES": 5090,
      "WILLOUGHBY": 5091,
      "BAR": 5092,
      "Cast": 5093,
      "Courage": 5094,
      "Del": 5095,
      "Ely": 5096,
      "Esc": 5097,
      "Fal": 5098,
      "Find": 5099,
      "Gu": 5100,
      "Gree": 5101,
      "Grace": 5102,
      "Hang": 5103,
      "Justice": 5104,
      "Lic": 5105,
      "Mer": 5106,
      "Mis": 5107,
      "Making": 5108,
      "Oh": 5109,
      "Old": 5110,
      "Queen": 5111,
      "RUT": 5112,
      "Sur": 5113,
      "Send": 5114,
      "Somet": 5115,
      "Trib": 5116,
      "Vaugh": 5117,
      "Wed": 5118,
      "Wife": 5119,
      "Woe": 5120,
      "ale": 5121,
      "bere": 5122,
      "bore": 5123,
      "bill": 5124,
      "borrow": 5125,
      "di": 5126,
      "date": 5127,
      "daint": 5128,
      "fard": 5129,
      "fant": 5130,
      "fix": 5131,
      "freed": 5132,
      "gidd": 5133,
      "hom": 5134,
      "hare": 5135,
      "hire": 5136,
      "hatch": 5137,
      "honey": 5138,
      "lur": 5139,
      "lap": 5140,
      "lower": 5141,
      "luck": 5142,
      "lying": 5143,
      "mur": 5144,
      "main": 5145,
      "mould": 5146,
      "mil": 5147,
      "net": 5148,
      "nest": 5149,
      "nice": 5150,
      "numb": 5151,
      "nupt": 5152,
      "por": 5153,
      "pee": 5154,
      "pear": 5155,
      "pop": 5156,
      "pick": 5157,
      "page": 5158,
      "pier": 5159,
      "paid": 5160,
      "rack": 5161,
      "rans": 5162,
      "rub": 5163,
      "rank": 5164,
      "sed": 5165,
      "sings": 5166,
      "sought": 5167,
      "tig": 5168,
      "tack": 5169,
      "tired": 5170,
      "vent": 5171,
      "velve": 5172,
      "wore": 5173,
      "yon": 5174,
      "zeal": 5175,
      "##eg": 5176,
      "##ex": 5177,
      "##cest": 5178,
      "##cue": 5179,
      "##tom": 5180,
      "##tles": 5181,
      "##sing": 5182,
      "##some": 5183,
      "##sire": 5184,
      "##iar": 5185,
      "##oon": 5186,
      "##nicious": 5187,
      "##fl": 5188,
      "##ded": 5189,
      "##lain": 5190,
      "##me": 5191,
      "##mas": 5192,
      "##morrow": 5193,
      "##ax": 5194,
      "##acle": 5195,
      "##vive": 5196,
      "##wife": 5197,
      "##bio": 5198,
      "##born": 5199,
      "##NARD": 5200,
      "##EP": 5201,
      "##ze": 5202,
      "thw": 5203,
      "thin": 5204,
      "thirst": 5205,
      "thumb": 5206,
      "##orough": 5207,
      "##att": 5208,
      "##atest": 5209,
      "##inate": 5210,
      "##arm": 5211,
      "##ares": 5212,
      "##aring": 5213,
      "##arged": 5214,
      "##enge": 5215,
      "##ision": 5216,
      "tomorrow": 5217,
      "##aning": 5218,
      "##ingers": 5219,
      "##rets": 5220,
      "##eder": 5221,
      "##sey": 5222,
      "##sell": 5223,
      "##semble": 5224,
      "ink": 5225,
      "heat": 5226,
      "heels": 5227,
      "##ayed": 5228,
      "haught": 5229,
      "##ched": 5230,
      "##chant": 5231,
      "##chief": 5232,
      "shot": 5233,
      "shop": 5234,
      "shook": 5235,
      "share": 5236,
      "shines": 5237,
      "shrift": 5238,
      "whores": 5239,
      "mew": 5240,
      "##urg": 5241,
      "forty": 5242,
      "noted": 5243,
      "##ital": 5244,
      "##itiff": 5245,
      "##oops": 5246,
      "Whiles": 5247,
      "stead": 5248,
      "stale": 5249,
      "straw": 5250,
      "stern": 5251,
      "##keley": 5252,
      "prime": 5253,
      "price": 5254,
      "liking": 5255,
      "livery": 5256,
      "##INE": 5257,
      "dogs": 5258,
      "dozen": 5259,
      "##rif": 5260,
      "##rible": 5261,
      "##thern": 5262,
      "dece": 5263,
      "deck": 5264,
      "wills": 5265,
      "##raid": 5266,
      "##rage": 5267,
      "suits": 5268,
      "hers": 5269,
      "herd": 5270,
      "anch": 5271,
      "spread": 5272,
      "shallow": 5273,
      "cha": 5274,
      "chos": 5275,
      "cheap": 5276,
      "##ilence": 5277,
      "neat": 5278,
      "upright": 5279,
      "goods": 5280,
      "conceive": 5281,
      "amiss": 5282,
      "##iege": 5283,
      "moves": 5284,
      "blast": 5285,
      "blown": 5286,
      "##ateful": 5287,
      "##ola": 5288,
      "sirs": 5289,
      "boast": 5290,
      "thereby": 5291,
      "orn": 5292,
      "trench": 5293,
      "troop": 5294,
      "trunk": 5295,
      "troops": 5296,
      "sweat": 5297,
      "usur": 5298,
      "##iced": 5299,
      "##icate": 5300,
      "arrest": 5301,
      "lets": 5302,
      "unm": 5303,
      "unse": 5304,
      "##unate": 5305,
      "##unken": 5306,
      "worm": 5307,
      "likely": 5308,
      "ages": 5309,
      "aged": 5310,
      "Shore": 5311,
      "madness": 5312,
      "sav": 5313,
      "somewhat": 5314,
      "disease": 5315,
      "process": 5316,
      "brown": 5317,
      "alms": 5318,
      "offices": 5319,
      "abuse": 5320,
      "##agues": 5321,
      "bread": 5322,
      "looked": 5323,
      "thinking": 5324,
      "telling": 5325,
      "whereon": 5326,
      "Wherefore": 5327,
      "Whereto": 5328,
      "##angling": 5329,
      "##AMUS": 5330,
      "fearing": 5331,
      "Beg": 5332,
      "cram": 5333,
      "##bert": 5334,
      "pernicious": 5335,
      "written": 5336,
      "score": 5337,
      "scatter": 5338,
      "Another": 5339,
      "Anne": 5340,
      "##alties": 5341,
      "##ably": 5342,
      "##ables": 5343,
      "contro": 5344,
      "reply": 5345,
      "reputation": 5346,
      "##lied": 5347,
      "beget": 5348,
      "leg": 5349,
      "##ensed": 5350,
      "##ension": 5351,
      "childish": 5352,
      "mightst": 5353,
      "peer": 5354,
      "Does": 5355,
      "drunken": 5356,
      "trif": 5357,
      "Prove": 5358,
      "bestow": 5359,
      "putting": 5360,
      "backs": 5361,
      "##ontes": 5362,
      "subd": 5363,
      "charm": 5364,
      "bank": 5365,
      "smother": 5366,
      "forthwith": 5367,
      "laws": 5368,
      "minded": 5369,
      "behav": 5370,
      "breathing": 5371,
      "##forth": 5372,
      "royalty": 5373,
      "coll": 5374,
      "lightning": 5375,
      "rod": 5376,
      "happily": 5377,
      "falling": 5378,
      "misfort": 5379,
      "depend": 5380,
      "counsell": 5381,
      "Alb": 5382,
      "Although": 5383,
      "advance": 5384,
      "courteous": 5385,
      "strive": 5386,
      "##othecary": 5387,
      "carried": 5388,
      "serp": 5389,
      "careful": 5390,
      "wanting": 5391,
      "Att": 5392,
      "grew": 5393,
      "senseless": 5394,
      "Dido": 5395,
      "beaut": 5396,
      "yields": 5397,
      "spoil": 5398,
      "buzz": 5399,
      "burnt": 5400,
      "discourse": 5401,
      "monster": 5402,
      "monarch": 5403,
      "affords": 5404,
      "sooner": 5405,
      "metal": 5406,
      "proportion": 5407,
      "sadness": 5408,
      "##IDAMUS": 5409,
      "blessing": 5410,
      "caps": 5411,
      "Hadst": 5412,
      "recomp": 5413,
      "Cambio": 5414,
      "learned": 5415,
      "execute": 5416,
      "redeem": 5417,
      "nobility": 5418,
      "minute": 5419,
      "suitors": 5420,
      "coronation": 5421,
      "waves": 5422,
      "praises": 5423,
      "##acles": 5424,
      "burns": 5425,
      "liberal": 5426,
      "raven": 5427,
      "bitterly": 5428,
      "methought": 5429,
      "joints": 5430,
      "possession": 5431,
      "actions": 5432,
      "violence": 5433,
      "limit": 5434,
      "limbs": 5435,
      "rebels": 5436,
      "sacrif": 5437,
      "succession": 5438,
      "Green": 5439,
      "caitiff": 5440,
      "midnight": 5441,
      "pitiful": 5442,
      "##eapons": 5443,
      "Methought": 5444,
      "urge": 5445,
      "injury": 5446,
      "churchyard": 5447,
      "meddle": 5448,
      "grandsire": 5449,
      "saints": 5450,
      "threatening": 5451,
      "guests": 5452,
      "hung": 5453,
      "unfold": 5454,
      "tricks": 5455,
      "months": 5456,
      "imagine": 5457,
      "covert": 5458,
      "Elbow": 5459,
      "Wiltshire": 5460,
      "befall": 5461,
      "inclined": 5462,
      "necessity": 5463,
      "prevented": 5464,
      "substance": 5465,
      "Leontes": 5466,
      "immortal": 5467,
      "senses": 5468,
      "shapes": 5469,
      "statue": 5470,
      "conjure": 5471,
      "bands": 5472,
      "censure": 5473,
      "torture": 5474,
      "transp": 5475,
      "Calib": 5476,
      "bottom": 5477,
      "steps": 5478,
      "ARCHIDAMUS": 5479,
      "tapster": 5480,
      "places": 5481,
      "intelligence": 5482,
      "companion": 5483,
      "Berkeley": 5484,
      "escape": 5485,
      "jewel": 5486,
      "moral": 5487,
      "rapier": 5488,
      "ruthless": 5489,
      "rejoice": 5490,
      "clamour": 5491,
      "Strike": 5492,
      "spleen": 5493,
      "cherish": 5494,
      "character": 5495,
      "prettiest": 5496,
      "Jesu": 5497,
      "Villain": 5498,
      "birds": 5499,
      "weapon": 5500,
      "likeness": 5501,
      "challenge": 5502,
      "goddess": 5503,
      "Fortune": 5504,
      "proclamation": 5505,
      "officers": 5506,
      "warriors": 5507,
      "dispersed": 5508,
      "commonwealth": 5509,
      "sepulchre": 5510,
      "Laurence": 5511,
      "BARNARD": 5512,
      "Escalus": 5513,
      "Licio": 5514,
      "RUTLAND": 5515,
      "Surrey": 5516,
      "Tribunes": 5517,
      "Vaughan": 5518,
      "fardel": 5519,
      "giddy": 5520,
      "nuptial": 5521,
      "peevish": 5522,
      "velvet": 5523,
      "##EPH": 5524,
      "chosen": 5525,
      "behavior": 5526,
      "BARNARDINE": 5527,
      "Add": 5528,
      "BA": 5529,
      "Bag": 5530,
      "Burg": 5531,
      "CAR": 5532,
      "Content": 5533,
      "Curt": 5534,
      "Dian": 5535,
      "Em": 5536,
      "Ever": 5537,
      "Fit": 5538,
      "Five": 5539,
      "Full": 5540,
      "FIT": 5541,
      "Gr": 5542,
      "Ga": 5543,
      "GE": 5544,
      "Gard": 5545,
      "Hon": 5546,
      "Hie": 5547,
      "Hic": 5548,
      "Live": 5549,
      "Lead": 5550,
      "Much": 5551,
      "Name": 5552,
      "Nature": 5553,
      "Part": 5554,
      "Pers": 5555,
      "Qu": 5556,
      "SI": 5557,
      "SC": 5558,
      "Sit": 5559,
      "Sly": 5560,
      "Sus": 5561,
      "Saw": 5562,
      "Sund": 5563,
      "Ten": 5564,
      "Touch": 5565,
      "Toward": 5566,
      "Vouch": 5567,
      "Virt": 5568,
      "Wor": 5569,
      "WES": 5570,
      "Women": 5571,
      "Yield": 5572,
      "aud": 5573,
      "bay": 5574,
      "bent": 5575,
      "bol": 5576,
      "cent": 5577,
      "cro": 5578,
      "cop": 5579,
      "cook": 5580,
      "cab": 5581,
      "dst": 5582,
      "dower": 5583,
      "dried": 5584,
      "dash": 5585,
      "eight": 5586,
      "fin": 5587,
      "fol": 5588,
      "fold": 5589,
      "fret": 5590,
      "fever": 5591,
      "felt": 5592,
      "fingers": 5593,
      "gn": 5594,
      "gam": 5595,
      "gap": 5596,
      "gains": 5597,
      "ice": 5598,
      "keys": 5599,
      "lour": 5600,
      "lance": 5601,
      "lect": 5602,
      "mour": 5603,
      "mates": 5604,
      "nar": 5605,
      "ought": 5606,
      "omit": 5607,
      "pent": 5608,
      "pill": 5609,
      "pip": 5610,
      "paint": 5611,
      "pace": 5612,
      "pomp": 5613,
      "pict": 5614,
      "rue": 5615,
      "rate": 5616,
      "rig": 5617,
      "roses": 5618,
      "sow": 5619,
      "sess": 5620,
      "sau": 5621,
      "sides": 5622,
      "silly": 5623,
      "tard": 5624,
      "tie": 5625,
      "takest": 5626,
      "vast": 5627,
      "vass": 5628,
      "waked": 5629,
      "weapons": 5630,
      "##rance": 5631,
      "##roof": 5632,
      "##egr": 5633,
      "##cure": 5634,
      "##po": 5635,
      "##pes": 5636,
      "##oves": 5637,
      "##yc": 5638,
      "##mp": 5639,
      "##med": 5640,
      "##mers": 5641,
      "##action": 5642,
      "##aced": 5643,
      "##acy": 5644,
      "##vied": 5645,
      "##ATER": 5646,
      "##GO": 5647,
      "##TM": 5648,
      "##we": 5649,
      "##wd": 5650,
      "##ZW": 5651,
      "##BAN": 5652,
      "thieves": 5653,
      "##oured": 5654,
      "##erent": 5655,
      "##iners": 5656,
      "##inher": 5657,
      "##arg": 5658,
      "##arum": 5659,
      "##isement": 5660,
      "##thest": 5661,
      "tops": 5662,
      "##oned": 5663,
      "##onus": 5664,
      "##onstant": 5665,
      "##reet": 5666,
      "##reant": 5667,
      "beef": 5668,
      "beams": 5669,
      "wipe": 5670,
      "Thine": 5671,
      "Things": 5672,
      "inv": 5673,
      "ingr": 5674,
      "height": 5675,
      "##aying": 5676,
      "hail": 5677,
      "##uts": 5678,
      "##iring": 5679,
      "shown": 5680,
      "shrie": 5681,
      "shining": 5682,
      "shoes": 5683,
      "whist": 5684,
      "whipp": 5685,
      "memb": 5686,
      "##urgh": 5687,
      "##urious": 5688,
      "##ims": 5689,
      "##imony": 5690,
      "notice": 5691,
      "hist": 5692,
      "week": 5693,
      "lions": 5694,
      "likes": 5695,
      "livest": 5696,
      "##order": 5697,
      "##alter": 5698,
      "soil": 5699,
      "soci": 5700,
      "aspect": 5701,
      "asham": 5702,
      "##ests": 5703,
      "##rich": 5704,
      "##riel": 5705,
      "##cket": 5706,
      "dem": 5707,
      "##verty": 5708,
      "alleg": 5709,
      "herald": 5710,
      "load": 5711,
      "lovers": 5712,
      "rend": 5713,
      "revel": 5714,
      "spot": 5715,
      "ourself": 5716,
      "chat": 5717,
      "##ilos": 5718,
      "##iliar": 5719,
      "neg": 5720,
      "fray": 5721,
      "framed": 5722,
      "frank": 5723,
      "##OREL": 5724,
      "##ORGE": 5725,
      "##ulter": 5726,
      "##ulous": 5727,
      "consequ": 5728,
      "fact": 5729,
      "favours": 5730,
      "amain": 5731,
      "amends": 5732,
      "ambit": 5733,
      "amorous": 5734,
      "blot": 5735,
      "##olved": 5736,
      "##vensp": 5737,
      "goss": 5738,
      "shel": 5739,
      "trim": 5740,
      "swore": 5741,
      "swears": 5742,
      "##umed": 5743,
      "knowing": 5744,
      "array": 5745,
      "una": 5746,
      "unth": 5747,
      "unre": 5748,
      "unfe": 5749,
      "##uns": 5750,
      "##ophy": 5751,
      "##emper": 5752,
      "##LIBAN": 5753,
      "##igent": 5754,
      "##igonus": 5755,
      "likewise": 5756,
      "##cile": 5757,
      "Shalt": 5758,
      "poverty": 5759,
      "saved": 5760,
      "##aker": 5761,
      "disinher": 5762,
      "outrage": 5763,
      "##eless": 5764,
      "speaking": 5765,
      "proved": 5766,
      "prodig": 5767,
      "Withdraw": 5768,
      "##ickle": 5769,
      "brat": 5770,
      "brains": 5771,
      "marvel": 5772,
      "marvell": 5773,
      "also": 5774,
      "##isting": 5775,
      "offences": 5776,
      "##igned": 5777,
      "abund": 5778,
      "except": 5779,
      "example": 5780,
      "flat": 5781,
      "friendship": 5782,
      "desc": 5783,
      "Mars": 5784,
      "Whereof": 5785,
      "##angers": 5786,
      "slight": 5787,
      "slipp": 5788,
      "betide": 5789,
      "seated": 5790,
      "seized": 5791,
      "couple": 5792,
      "crook": 5793,
      "crush": 5794,
      "crutch": 5795,
      "errand": 5796,
      "nights": 5797,
      "parties": 5798,
      "partner": 5799,
      "adulter": 5800,
      "sweetly": 5801,
      "prefer": 5802,
      "scratch": 5803,
      "plebe": 5804,
      "##ulls": 5805,
      "##ROOP": 5806,
      "worldly": 5807,
      "contents": 5808,
      "downright": 5809,
      "presume": 5810,
      "preserve": 5811,
      "lewd": 5812,
      "imper": 5813,
      "longs": 5814,
      "afraid": 5815,
      "integr": 5816,
      "##ancing": 5817,
      "stays": 5818,
      "hoar": 5819,
      "restrain": 5820,
      "merri": 5821,
      "merchant": 5822,
      "compound": 5823,
      "settled": 5824,
      "droop": 5825,
      "resem": 5826,
      "dearer": 5827,
      "Proclaim": 5828,
      "ended": 5829,
      "purge": 5830,
      "grieves": 5831,
      "grieved": 5832,
      "confound": 5833,
      "couldst": 5834,
      "smil": 5835,
      "earthly": 5836,
      "bidding": 5837,
      "drew": 5838,
      "homely": 5839,
      "hopeful": 5840,
      "travell": 5841,
      "coat": 5842,
      "cozen": 5843,
      "helps": 5844,
      "devour": 5845,
      "holding": 5846,
      "readiness": 5847,
      "curtain": 5848,
      "landed": 5849,
      "falls": 5850,
      "misc": 5851,
      "obsequ": 5852,
      "falcon": 5853,
      "depose": 5854,
      "busy": 5855,
      "courtier": 5856,
      "strict": 5857,
      "sounds": 5858,
      "sounded": 5859,
      "thankful": 5860,
      "retired": 5861,
      "villains": 5862,
      "sentenced": 5863,
      "attorn": 5864,
      "entrance": 5865,
      "revenges": 5866,
      "Trust": 5867,
      "prompt": 5868,
      "greed": 5869,
      "kisses": 5870,
      "purple": 5871,
      "Comes": 5872,
      "Comfort": 5873,
      "winters": 5874,
      "Canst": 5875,
      "lambs": 5876,
      "parents": 5877,
      "beats": 5878,
      "beaten": 5879,
      "lately": 5880,
      "wears": 5881,
      "cheque": 5882,
      "recover": 5883,
      "##undy": 5884,
      "devilish": 5885,
      "entreaties": 5886,
      "boldly": 5887,
      "boldness": 5888,
      "Captain": 5889,
      "riches": 5890,
      "##ventry": 5891,
      "youthful": 5892,
      "nobleness": 5893,
      "incensed": 5894,
      "infer": 5895,
      "profane": 5896,
      "Becomes": 5897,
      "divor": 5898,
      "##noble": 5899,
      "##upid": 5900,
      "flattering": 5901,
      "CALIBAN": 5902,
      "Welsh": 5903,
      "musicians": 5904,
      "wax": 5905,
      "skill": 5906,
      "signal": 5907,
      "signify": 5908,
      "cloudy": 5909,
      "Swear": 5910,
      "cheerly": 5911,
      "evils": 5912,
      "ELY": 5913,
      "exped": 5914,
      "wisely": 5915,
      "satisfaction": 5916,
      "Above": 5917,
      "bowels": 5918,
      "darkness": 5919,
      "esteem": 5920,
      "towns": 5921,
      "apace": 5922,
      "baby": 5923,
      "owes": 5924,
      "hurl": 5925,
      "suddenly": 5926,
      "Perhaps": 5927,
      "cowardly": 5928,
      "eaten": 5929,
      "approbation": 5930,
      "treasons": 5931,
      "lamentable": 5932,
      "Blunt": 5933,
      "kinsmen": 5934,
      "changing": 5935,
      "destruction": 5936,
      "fiend": 5937,
      "fondly": 5938,
      "middle": 5939,
      "##ossess": 5940,
      "insol": 5941,
      "usurping": 5942,
      "departure": 5943,
      "Adieu": 5944,
      "mildly": 5945,
      "mildness": 5946,
      "philos": 5947,
      "storms": 5948,
      "gladly": 5949,
      "extreme": 5950,
      "STEPH": 5951,
      "lists": 5952,
      "##volio": 5953,
      "grandam": 5954,
      "condemned": 5955,
      "Antigonus": 5956,
      "Verily": 5957,
      "mutinous": 5958,
      "petty": 5959,
      "ships": 5960,
      "stops": 5961,
      "temples": 5962,
      "threaten": 5963,
      "conquest": 5964,
      "bastards": 5965,
      "eldest": 5966,
      "provide": 5967,
      "provided": 5968,
      "EXTON": 5969,
      "Neither": 5970,
      "neighbours": 5971,
      "amongst": 5972,
      "greeting": 5973,
      "ministers": 5974,
      "Desp": 5975,
      "Else": 5976,
      "conclud": 5977,
      "conclude": 5978,
      "acquainted": 5979,
      "eleven": 5980,
      "ghostly": 5981,
      "gifts": 5982,
      "tyrannous": 5983,
      "troubled": 5984,
      "designs": 5985,
      "tempted": 5986,
      "Prepare": 5987,
      "detest": 5988,
      "heavier": 5989,
      "persuade": 5990,
      "vanity": 5991,
      "wandering": 5992,
      "suprem": 5993,
      "accusation": 5994,
      "frail": 5995,
      "frost": 5996,
      "winged": 5997,
      "discontented": 5998,
      "Appear": 5999,
      "Coventry": 6000,
      "Patience": 6001,
      "hazard": 6002,
      "stolen": 6003,
      "revolt": 6004,
      "robes": 6005,
      "instantly": 6006,
      "Benvolio": 6007,
      "figure": 6008,
      "##iveness": 6009,
      "provoked": 6010,
      "circumstance": 6011,
      "balm": 6012,
      "ceremon": 6013,
      "search": 6014,
      "reckon": 6015,
      "##LISLE": 6016,
      "bridal": 6017,
      "complexion": 6018,
      "reconcile": 6019,
      "unkindness": 6020,
      "substitute": 6021,
      "pilgrimage": 6022,
      "Minola": 6023,
      "Ravensp": 6024,
      "Venice": 6025,
      "##nesday": 6026,
      "neglect": 6027,
      "constable": 6028,
      "sufficient": 6029,
      "estimation": 6030,
      "occupation": 6031,
      "False": 6032,
      "Wednesday": 6033,
      "fantast": 6034,
      "freedom": 6035,
      "piercing": 6036,
      "ransom": 6037,
      "savage": 6038,
      "misfortune": 6039,
      "recompense": 6040,
      "Caliban": 6041,
      "BAGO": 6042,
      "Bagot": 6043,
      "Burgundy": 6044,
      "CARLISLE": 6045,
      "Curtis": 6046,
      "FITZW": 6047,
      "Gaoler": 6048,
      "GEORGE": 6049,
      "Gardener": 6050,
      "Persu": 6051,
      "SIR": 6052,
      "SCROOP": 6053,
      "Sunday": 6054,
      "Towards": 6055,
      "Vouchsafe": 6056,
      "WESTM": 6057,
      "folks": 6058,
      "narrow": 6059,
      "members": 6060,
      "ashamed": 6061,
      "allegiance": 6062,
      "##ORELAND": 6063,
      "ambitious": 6064,
      "integrity": 6065,
      "philosophy": 6066,
      "STEPHEN": 6067,
      "Ravenspurgh": 6068,
      "BAGOT": 6069,
      "FITZWATER": 6070,
      "WESTMORELAND": 6071,
      "Ac": 6072,
      "Aff": 6073,
      "Ariel": 6074,
      "Best": 6075,
      "Bound": 6076,
      "Bold": 6077,
      "Bless": 6078,
      "Bishop": 6079,
      "Cont": 6080,
      "Carth": 6081,
      "Cupid": 6082,
      "Dest": 6083,
      "Dep": 6084,
      "Div": 6085,
      "Er": 6086,
      "Fall": 6087,
      "Fell": 6088,
      "Foul": 6089,
      "Fetch": 6090,
      "Gives": 6091,
      "Ho": 6092,
      "Jup": 6093,
      "Kent": 6094,
      "Kind": 6095,
      "Lend": 6096,
      "Lies": 6097,
      "Murder": 6098,
      "Meas": 6099,
      "Ned": 6100,
      "Nept": 6101,
      "Op": 6102,
      "Over": 6103,
      "Pem": 6104,
      "Purs": 6105,
      "Red": 6106,
      "Rel": 6107,
      "Sim": 6108,
      "Sub": 6109,
      "Syc": 6110,
      "Tra": 6111,
      "Tun": 6112,
      "Tew": 6113,
      "Talk": 6114,
      "Teach": 6115,
      "Troy": 6116,
      "Truly": 6117,
      "West": 6118,
      "Weep": 6119,
      "Wert": 6120,
      "Walter": 6121,
      "Zounds": 6122,
      "ack": 6123,
      "afe": 6124,
      "bul": 6125,
      "bows": 6126,
      "bail": 6127,
      "bush": 6128,
      "bench": 6129,
      "bald": 6130,
      "bounty": 6131,
      "bishop": 6132,
      "cord": 6133,
      "cas": 6134,
      "cand": 6135,
      "cush": 6136,
      "cords": 6137,
      "crows": 6138,
      "der": 6139,
      "dine": 6140,
      "diest": 6141,
      "dined": 6142,
      "dumb": 6143,
      "drift": 6144,
      "dancing": 6145,
      "event": 6146,
      "eternal": 6147,
      "fan": 6148,
      "fre": 6149,
      "fil": 6150,
      "fount": 6151,
      "fulf": 6152,
      "gri": 6153,
      "gust": 6154,
      "game": 6155,
      "gather": 6156,
      "gaunt": 6157,
      "hill": 6158,
      "hinder": 6159,
      "ir": 6160,
      "ig": 6161,
      "key": 6162,
      "kites": 6163,
      "len": 6164,
      "line": 6165,
      "lace": 6166,
      "lute": 6167,
      "linger": 6168,
      "mom": 6169,
      "mas": 6170,
      "mast": 6171,
      "mouse": 6172,
      "mask": 6173,
      "nigh": 6174,
      "named": 6175,
      "nourish": 6176,
      "nimble": 6177,
      "pow": 6178,
      "pest": 6179,
      "pour": 6180,
      "pant": 6181,
      "pence": 6182,
      "pup": 6183,
      "rum": 6184,
      "rouse": 6185,
      "race": 6186,
      "ranc": 6187,
      "roof": 6188,
      "sand": 6189,
      "sith": 6190,
      "sixt": 6191,
      "sitting": 6192,
      "tim": 6193,
      "torn": 6194,
      "taking": 6195,
      "ug": 6196,
      "vul": 6197,
      "vial": 6198,
      "venture": 6199,
      "wet": 6200,
      "wave": 6201,
      "yard": 6202,
      "yare": 6203,
      "yester": 6204,
      "##resh": 6205,
      "##rament": 6206,
      "##eer": 6207,
      "##cus": 6208,
      "##tin": 6209,
      "##iver": 6210,
      "##ocate": 6211,
      "##fall": 6212,
      "##father": 6213,
      "##uc": 6214,
      "##ug": 6215,
      "##uge": 6216,
      "##uish": 6217,
      "##uiv": 6218,
      "##ually": 6219,
      "##ugg": 6220,
      "##dy": 6221,
      "##din": 6222,
      "##done": 6223,
      "##len": 6224,
      "##light": 6225,
      "##last": 6226,
      "##lace": 6227,
      "##liness": 6228,
      "##master": 6229,
      "##vir": 6230,
      "##val": 6231,
      "##vouch": 6232,
      "##vided": 6233,
      "##gic": 6234,
      "##gues": 6235,
      "##wer": 6236,
      "##bour": 6237,
      "##bot": 6238,
      "##bles": 6239,
      "##bey": 6240,
      "##board": 6241,
      "##bric": 6242,
      "##BISHOP": 6243,
      "##ored": 6244,
      "##orax": 6245,
      "##ater": 6246,
      "##inu": 6247,
      "##inal": 6248,
      "##inies": 6249,
      "##inces": 6250,
      "##lling": 6251,
      "##thood": 6252,
      "toads": 6253,
      "##onio": 6254,
      "##anish": 6255,
      "##anks": 6256,
      "nod": 6257,
      "noon": 6258,
      "Throw": 6259,
      "inh": 6260,
      "inward": 6261,
      "invent": 6262,
      "heap": 6263,
      "heel": 6264,
      "heinous": 6265,
      "##cels": 6266,
      "##ays": 6267,
      "hag": 6268,
      "hall": 6269,
      "haunt": 6270,
      "shine": 6271,
      "shru": 6272,
      "shade": 6273,
      "whore": 6274,
      "meed": 6275,
      "meal": 6276,
      "##urb": 6277,
      "##uring": 6278,
      "##iments": 6279,
      "##itter": 6280,
      "stink": 6281,
      "stag": 6282,
      "steep": 6283,
      "stark": 6284,
      "stiff": 6285,
      "stumble": 6286,
      "##iders": 6287,
      "prate": 6288,
      "prating": 6289,
      "lick": 6290,
      "##advent": 6291,
      "##alks": 6292,
      "##ason": 6293,
      "##asing": 6294,
      "assemb": 6295,
      "##amy": 6296,
      "##amity": 6297,
      "##aments": 6298,
      "dole": 6299,
      "##rician": 6300,
      "##aining": 6301,
      "deer": 6302,
      "deform": 6303,
      "##raft": 6304,
      "##racious": 6305,
      "butter": 6306,
      "##anders": 6307,
      "herds": 6308,
      "ann": 6309,
      "ancest": 6310,
      "rein": 6311,
      "revive": 6312,
      "spark": 6313,
      "spurs": 6314,
      "spider": 6315,
      "##ella": 6316,
      "cho": 6317,
      "chose": 6318,
      "chap": 6319,
      "chances": 6320,
      "knit": 6321,
      "frant": 6322,
      "whatsoever": 6323,
      "##otland": 6324,
      "##ules": 6325,
      "manhood": 6326,
      "##arted": 6327,
      "cong": 6328,
      "amaz": 6329,
      "##iece": 6330,
      "moe": 6331,
      "moving": 6332,
      "moiety": 6333,
      "blue": 6334,
      "bliss": 6335,
      "blade": 6336,
      "blaze": 6337,
      "##ived": 6338,
      "##ively": 6339,
      "theme": 6340,
      "boister": 6341,
      "thereto": 6342,
      "orator": 6343,
      "cann": 6344,
      "canop": 6345,
      "trow": 6346,
      "swoon": 6347,
      "herein": 6348,
      "seeks": 6349,
      "##pping": 6350,
      "##icle": 6351,
      "##ication": 6352,
      "arch": 6353,
      "arise": 6354,
      "une": 6355,
      "unlike": 6356,
      "unruly": 6357,
      "##uned": 6358,
      "worms": 6359,
      "worser": 6360,
      "enforced": 6361,
      "enrich": 6362,
      "likeli": 6363,
      "mustard": 6364,
      "plaint": 6365,
      "graces": 6366,
      "shoulders": 6367,
      "##cies": 6368,
      "##ciful": 6369,
      "sap": 6370,
      "sack": 6371,
      "##ecy": 6372,
      "##aped": 6373,
      "diso": 6374,
      "dissemb": 6375,
      "twould": 6376,
      "broad": 6377,
      "marshal": 6378,
      "aloud": 6379,
      "brotherhood": 6380,
      "exper": 6381,
      "exceed": 6382,
      "##aged": 6383,
      "eyed": 6384,
      "flock": 6385,
      "everlast": 6386,
      "leap": 6387,
      "leaving": 6388,
      "warn": 6389,
      "slily": 6390,
      "##ption": 6391,
      "severe": 6392,
      "nighting": 6393,
      "cler": 6394,
      "closed": 6395,
      "fox": 6396,
      "commends": 6397,
      "##ittany": 6398,
      "perd": 6399,
      "perfection": 6400,
      "sweetest": 6401,
      "wring": 6402,
      "##awful": 6403,
      "northern": 6404,
      "otherwise": 6405,
      "meaner": 6406,
      "Answer": 6407,
      "appears": 6408,
      "grim": 6409,
      "grass": 6410,
      "downfall": 6411,
      "Thank": 6412,
      "##lier": 6413,
      "level": 6414,
      "mothers": 6415,
      "##shine": 6416,
      "intents": 6417,
      "##attern": 6418,
      "lief": 6419,
      "hole": 6420,
      "rests": 6421,
      "##ksbury": 6422,
      "merc": 6423,
      "compare": 6424,
      "Str": 6425,
      "dram": 6426,
      "dearth": 6427,
      "Prosper": 6428,
      "bestr": 6429,
      "henceforth": 6430,
      "endured": 6431,
      "thrown": 6432,
      "throng": 6433,
      "Thyself": 6434,
      "##easant": 6435,
      "charges": 6436,
      "confidence": 6437,
      "confeder": 6438,
      "impeach": 6439,
      "beside": 6440,
      "beseeming": 6441,
      "royalties": 6442,
      "coast": 6443,
      "lights": 6444,
      "fully": 6445,
      "wronged": 6446,
      "afterward": 6447,
      "fallen": 6448,
      "lasting": 6449,
      "mischief": 6450,
      "obs": 6451,
      "obst": 6452,
      "obsc": 6453,
      "patron": 6454,
      "thousands": 6455,
      "brand": 6456,
      "##ulting": 6457,
      "believed": 6458,
      "talking": 6459,
      "humility": 6460,
      "advanced": 6461,
      "advocate": 6462,
      "strife": 6463,
      "carries": 6464,
      "serious": 6465,
      "harl": 6466,
      "harvest": 6467,
      "harbour": 6468,
      "persons": 6469,
      "revenue": 6470,
      "hangman": 6471,
      "doubtful": 6472,
      "commands": 6473,
      "window": 6474,
      "proudest": 6475,
      "Twice": 6476,
      "Twixt": 6477,
      "##ifth": 6478,
      "breaks": 6479,
      "yielding": 6480,
      "Command": 6481,
      "support": 6482,
      "burden": 6483,
      "temple": 6484,
      "require": 6485,
      "affright": 6486,
      "tenderness": 6487,
      "sadly": 6488,
      "reported": 6489,
      "growth": 6490,
      "Montagues": 6491,
      "silk": 6492,
      "watery": 6493,
      "recreant": 6494,
      "learning": 6495,
      "runs": 6496,
      "asking": 6497,
      "crying": 6498,
      "devils": 6499,
      "entreaty": 6500,
      "murdered": 6501,
      "murderous": 6502,
      "battles": 6503,
      "confessor": 6504,
      "confession": 6505,
      "quarter": 6506,
      "revengeful": 6507,
      "redempt": 6508,
      "speedy": 6509,
      "##ertaint": 6510,
      "distra": 6511,
      "disturb": 6512,
      "despised": 6513,
      "minutes": 6514,
      "secrets": 6515,
      "terr": 6516,
      "tribune": 6517,
      "bosoms": 6518,
      "flatterers": 6519,
      "harmony": 6520,
      "leaden": 6521,
      "wonderful": 6522,
      "attended": 6523,
      "Volscians": 6524,
      "Volscian": 6525,
      "musician": 6526,
      "singular": 6527,
      "waits": 6528,
      "delicate": 6529,
      "acts": 6530,
      "lads": 6531,
      "##umbled": 6532,
      "suffering": 6533,
      "sufferance": 6534,
      "veil": 6535,
      "champ": 6536,
      "breasts": 6537,
      "wedded": 6538,
      "interrupt": 6539,
      "embass": 6540,
      "feasts": 6541,
      "groom": 6542,
      "bowl": 6543,
      "dared": 6544,
      "undo": 6545,
      "ape": 6546,
      "apart": 6547,
      "##ody": 6548,
      "knocks": 6549,
      "visitation": 6550,
      "dukes": 6551,
      "safely": 6552,
      "safegu": 6553,
      "Isabella": 6554,
      "oppression": 6555,
      "sacrament": 6556,
      "approved": 6557,
      "Stands": 6558,
      "lamentation": 6559,
      "easily": 6560,
      "defy": 6561,
      "unworthy": 6562,
      "unwilling": 6563,
      "drinking": 6564,
      "damnable": 6565,
      "causes": 6566,
      "destiny": 6567,
      "midst": 6568,
      "midwife": 6569,
      "pitied": 6570,
      "surfeit": 6571,
      "insinu": 6572,
      "forehead": 6573,
      "smallest": 6574,
      "Adv": 6575,
      "Heart": 6576,
      "calamity": 6577,
      "utmost": 6578,
      "##peian": 6579,
      "proceedings": 6580,
      "beggars": 6581,
      "extremes": 6582,
      "injustice": 6583,
      "disgraced": 6584,
      "pursue": 6585,
      "pursuit": 6586,
      "Mistake": 6587,
      "medic": 6588,
      "reigns": 6589,
      "grandfather": 6590,
      "prophesy": 6591,
      "prophecy": 6592,
      "Antonio": 6593,
      "Scotland": 6594,
      "prosperity": 6595,
      "slanderous": 6596,
      "glasses": 6597,
      "tempor": 6598,
      "familiar": 6599,
      "lowly": 6600,
      "bending": 6601,
      "loathed": 6602,
      "loathsome": 6603,
      "model": 6604,
      "Capulets": 6605,
      "mountain": 6606,
      "plants": 6607,
      "unpro": 6608,
      "ABRA": 6609,
      "lodge": 6610,
      "lodged": 6611,
      "lodging": 6612,
      "blushing": 6613,
      "imagination": 6614,
      "conclusion": 6615,
      "unlook": 6616,
      "unluck": 6617,
      "considered": 6618,
      "roaring": 6619,
      "avoided": 6620,
      "creep": 6621,
      "crept": 6622,
      "eager": 6623,
      "pinch": 6624,
      "loyalty": 6625,
      "guiltless": 6626,
      "cracking": 6627,
      "conqueror": 6628,
      "aims": 6629,
      "pilot": 6630,
      "sensible": 6631,
      "infected": 6632,
      "forsooth": 6633,
      "statutes": 6634,
      "stocks": 6635,
      "angels": 6636,
      "springs": 6637,
      "chiefest": 6638,
      "breeding": 6639,
      "corruption": 6640,
      "frozen": 6641,
      "linea": 6642,
      "tutor": 6643,
      "compassion": 6644,
      "ARCHBISHOP": 6645,
      "Brittany": 6646,
      "fleet": 6647,
      "magist": 6648,
      "rushes": 6649,
      "concerns": 6650,
      "branches": 6651,
      "maidenhead": 6652,
      "Break": 6653,
      "Ready": 6654,
      "lunatic": 6655,
      "puiss": 6656,
      "whispering": 6657,
      "ashes": 6658,
      "swelling": 6659,
      "abhorr": 6660,
      "cloak": 6661,
      "advert": 6662,
      "adverse": 6663,
      "perjured": 6664,
      "afflict": 6665,
      "Suppose": 6666,
      "Tarpeian": 6667,
      "multitude": 6668,
      "nails": 6669,
      "##blance": 6670,
      "inquire": 6671,
      "discharge": 6672,
      "climate": 6673,
      "wrinkled": 6674,
      "councils": 6675,
      "displeasure": 6676,
      "correction": 6677,
      "Confess": 6678,
      "Antium": 6679,
      "Lieutenant": 6680,
      "fifteen": 6681,
      "moody": 6682,
      "pedlar": 6683,
      "surpr": 6684,
      "taunts": 6685,
      "varlet": 6686,
      "shearing": 6687,
      "steward": 6688,
      "innocence": 6689,
      "Sometime": 6690,
      "bereft": 6691,
      "murders": 6692,
      "milk": 6693,
      "numbers": 6694,
      "pearl": 6695,
      "popular": 6696,
      "tiger": 6697,
      "whoreson": 6698,
      "anchor": 6699,
      "ornaments": 6700,
      "unseen": 6701,
      "trifles": 6702,
      "counsellor": 6703,
      "Alban": 6704,
      "serpent": 6705,
      "Attend": 6706,
      "Virtue": 6707,
      "cabin": 6708,
      "tardy": 6709,
      "history": 6710,
      "negl": 6711,
      "consequence": 6712,
      "marvellous": 6713,
      "plebeians": 6714,
      "ceremonious": 6715,
      "Carthage": 6716,
      "Jupiter": 6717,
      "Neptune": 6718,
      "Pembroke": 6719,
      "Sycorax": 6720,
      "Tunis": 6721,
      "Tewksbury": 6722,
      "acknow": 6723,
      "afeard": 6724,
      "ignoble": 6725,
      "lenity": 6726,
      "moment": 6727,
      "sixteen": 6728,
      "vulgar": 6729,
      "##uivant": 6730,
      "##adventure": 6731,
      "frantic": 6732,
      "boisterous": 6733,
      "likelihood": 6734,
      "redemption": 6735,
      "safeguard": 6736,
      "ABRAHAM": 6737,
      "Bad": 6738,
      "BON": 6739,
      "Back": 6740,
      "Besh": 6741,
      "Banish": 6742,
      "Cy": 6743,
      "Cold": 6744,
      "Cher": 6745,
      "Carry": 6746,
      "Cursed": 6747,
      "Dor": 6748,
      "Den": 6749,
      "Dare": 6750,
      "DION": 6751,
      "Darest": 6752,
      "Direct": 6753,
      "EM": 6754,
      "End": 6755,
      "Every": 6756,
      "Fly": 6757,
      "Fore": 6758,
      "Fill": 6759,
      "Fifth": 6760,
      "Gainst": 6761,
      "Groom": 6762,
      "Grand": 6763,
      "Host": 6764,
      "High": 6765,
      "Holl": 6766,
      "Harp": 6767,
      "Holy": 6768,
      "Ir": 6769,
      "Ill": 6770,
      "Jer": 6771,
      "Just": 6772,
      "Jun": 6773,
      "Join": 6774,
      "Lam": 6775,
      "Lod": 6776,
      "Masters": 6777,
      "Near": 6778,
      "NATH": 6779,
      "Obey": 6780,
      "PA": 6781,
      "Ro": 6782,
      "Ren": 6783,
      "Rest": 6784,
      "Run": 6785,
      "Si": 6786,
      "Sin": 6787,
      "Suff": 6788,
      "SUR": 6789,
      "Tur": 6790,
      "Ur": 6791,
      "Worse": 6792,
      "Wales": 6793,
      "afore": 6794,
      "avouch": 6795,
      "bone": 6796,
      "bout": 6797,
      "bought": 6798,
      "bach": 6799,
      "bount": 6800,
      "budge": 6801,
      "ce": 6802,
      "cri": 6803,
      "card": 6804,
      "cave": 6805,
      "cuck": 6806,
      "crew": 6807,
      "cool": 6808,
      "dom": 6809,
      "ded": 6810,
      "dil": 6811,
      "dame": 6812,
      "diet": 6813,
      "drows": 6814,
      "dangers": 6815,
      "ebb": 6816,
      "fow": 6817,
      "fet": 6818,
      "fest": 6819,
      "fem": 6820,
      "fits": 6821,
      "fitted": 6822,
      "gas": 6823,
      "gaz": 6824,
      "gape": 6825,
      "geld": 6826,
      "gulf": 6827,
      "hy": 6828,
      "hood": 6829,
      "hook": 6830,
      "hedge": 6831,
      "ire": 6832,
      "jade": 6833,
      "jump": 6834,
      "lou": 6835,
      "link": 6836,
      "loose": 6837,
      "lends": 6838,
      "lane": 6839,
      "latest": 6840,
      "mant": 6841,
      "mum": 6842,
      "miles": 6843,
      "muff": 6844,
      "mongst": 6845,
      "ny": 6846,
      "non": 6847,
      "naught": 6848,
      "nursed": 6849,
      "om": 6850,
      "pere": 6851,
      "pine": 6852,
      "pate": 6853,
      "pile": 6854,
      "pull": 6855,
      "puff": 6856,
      "pedant": 6857,
      "piled": 6858,
      "pounds": 6859,
      "pattern": 6860,
      "rab": 6861,
      "raim": 6862,
      "rats": 6863,
      "rivers": 6864,
      "rites": 6865,
      "rising": 6866,
      "rhe": 6867,
      "sine": 6868,
      "siege": 6869,
      "til": 6870,
      "tink": 6871,
      "treat": 6872,
      "tents": 6873,
      "tainted": 6874,
      "tamed": 6875,
      "tailor": 6876,
      "vine": 6877,
      "vig": 6878,
      "wester": 6879,
      "waken": 6880,
      "waning": 6881,
      "##raint": 6882,
      "##ranch": 6883,
      "##riment": 6884,
      "##cr": 6885,
      "##core": 6886,
      "##cund": 6887,
      "##comes": 6888,
      "##craft": 6889,
      "##cules": 6890,
      "##ped": 6891,
      "##pire": 6892,
      "##ples": 6893,
      "##pret": 6894,
      "##picious": 6895,
      "##ta": 6896,
      "##sion": 6897,
      "##smen": 6898,
      "##spe": 6899,
      "##ias": 6900,
      "##iqu": 6901,
      "##oqu": 6902,
      "##net": 6903,
      "##nel": 6904,
      "##fed": 6905,
      "##franch": 6906,
      "##uced": 6907,
      "##uits": 6908,
      "##upon": 6909,
      "##ukes": 6910,
      "##hors": 6911,
      "##duce": 6912,
      "##lu": 6913,
      "##low": 6914,
      "##long": 6915,
      "##lful": 6916,
      "##lock": 6917,
      "##mpt": 6918,
      "##miss": 6919,
      "##mph": 6920,
      "##kest": 6921,
      "##kind": 6922,
      "##kens": 6923,
      "##ais": 6924,
      "##aeth": 6925,
      "##avish": 6926,
      "##vil": 6927,
      "##gers": 6928,
      "##gage": 6929,
      "##gled": 6930,
      "##gory": 6931,
      "##wor": 6932,
      "##bus": 6933,
      "##join": 6934,
      "##IEL": 6935,
      "##REY": 6936,
      "threes": 6937,
      "##ering": 6938,
      "##erog": 6939,
      "##ato": 6940,
      "##iner": 6941,
      "##esher": 6942,
      "##aration": 6943,
      "##arks": 6944,
      "##arison": 6945,
      "##arried": 6946,
      "##lly": 6947,
      "##isc": 6948,
      "##isk": 6949,
      "##isome": 6950,
      "##throw": 6951,
      "toe": 6952,
      "toy": 6953,
      "toss": 6954,
      "token": 6955,
      "tonight": 6956,
      "tower": 6957,
      "##anie": 6958,
      "##owick": 6959,
      "##inguish": 6960,
      "##oming": 6961,
      "##omenes": 6962,
      "##strel": 6963,
      "beet": 6964,
      "beads": 6965,
      "wilful": 6966,
      "##ediment": 6967,
      "##ediate": 6968,
      "noses": 6969,
      "##seth": 6970,
      "ing": 6971,
      "inve": 6972,
      "hew": 6973,
      "heigh": 6974,
      "##cel": 6975,
      "haw": 6976,
      "halt": 6977,
      "##lect": 6978,
      "##irl": 6979,
      "##chang": 6980,
      "##erely": 6981,
      "shri": 6982,
      "shout": 6983,
      "shower": 6984,
      "shift": 6985,
      "##etition": 6986,
      "whet": 6987,
      "whipt": 6988,
      "mellow": 6989,
      "##urvy": 6990,
      "forn": 6991,
      "foret": 6992,
      "forest": 6993,
      "forces": 6994,
      "notes": 6995,
      "notwith": 6996,
      "notorious": 6997,
      "##itness": 6998,
      "stall": 6999,
      "stem": 7000,
      "stub": 7001,
      "staff": 7002,
      "##key": 7003,
      "##enting": 7004,
      "##ently": 7005,
      "##entious": 7006,
      "##athers": 7007,
      "weed": 7008,
      "##allel": 7009,
      "##iding": 7010,
      "##ghts": 7011,
      "print": 7012,
      "prunes": 7013,
      "prerog": 7014,
      "liar": 7015,
      "liqu": 7016,
      "##ado": 7017,
      "##adem": 7018,
      "##adise": 7019,
      "##alion": 7020,
      "solic": 7021,
      "aspir": 7022,
      "##amer": 7023,
      "dot": 7024,
      "dol": 7025,
      "doct": 7026,
      "doves": 7027,
      "doors": 7028,
      "##ril": 7029,
      "##rion": 7030,
      "##ribe": 7031,
      "deceive": 7032,
      "defect": 7033,
      "##rails": 7034,
      "allies": 7035,
      "sued": 7036,
      "sung": 7037,
      "sunder": 7038,
      "sugar": 7039,
      "sugg": 7040,
      "##rop": 7041,
      "##roach": 7042,
      "herbs": 7043,
      "antic": 7044,
      "loins": 7045,
      "render": 7046,
      "revers": 7047,
      "relish": 7048,
      "sped": 7049,
      "spear": 7050,
      "spices": 7051,
      "spilt": 7052,
      "spiders": 7053,
      "chop": 7054,
      "chains": 7055,
      "chival": 7056,
      "##illed": 7057,
      "knigh": 7058,
      "front": 7059,
      "fruits": 7060,
      "##ously": 7061,
      "##feits": 7062,
      "whate": 7063,
      "##antime": 7064,
      "attain": 7065,
      "conver": 7066,
      "Whate": 7067,
      "faction": 7068,
      "amend": 7069,
      "moan": 7070,
      "blister": 7071,
      "##olar": 7072,
      "##olve": 7073,
      "##venient": 7074,
      "Forb": 7075,
      "Forth": 7076,
      "Forbear": 7077,
      "wasp": 7078,
      "sheet": 7079,
      "box": 7080,
      "boat": 7081,
      "boon": 7082,
      "##ANIEL": 7083,
      "orph": 7084,
      "canker": 7085,
      "trades": 7086,
      "sayest": 7087,
      "using": 7088,
      "##pper": 7089,
      "##ppet": 7090,
      "##icial": 7091,
      "##umes": 7092,
      "##umps": 7093,
      "##uments": 7094,
      "##umny": 7095,
      "knowest": 7096,
      "arbit": 7097,
      "unsh": 7098,
      "unple": 7099,
      "unrest": 7100,
      "##unch": 7101,
      "Gold": 7102,
      "##opher": 7103,
      "Ass": 7104,
      "musty": 7105,
      "plan": 7106,
      "plight": 7107,
      "plate": 7108,
      "pledge": 7109,
      "graft": 7110,
      "##cip": 7111,
      "##cially": 7112,
      "agreed": 7113,
      "Shame": 7114,
      "madly": 7115,
      "madest": 7116,
      "madman": 7117,
      "pox": 7118,
      "poll": 7119,
      "pocket": 7120,
      "Hector": 7121,
      "##fulness": 7122,
      "##apes": 7123,
      "##apable": 7124,
      "diseas": 7125,
      "dissemble": 7126,
      "disorder": 7127,
      "##elm": 7128,
      "##elor": 7129,
      "procure": 7130,
      "bru": 7131,
      "brass": 7132,
      "Thoughts": 7133,
      "marr": 7134,
      "marble": 7135,
      "mariners": 7136,
      "Ins": 7137,
      "Infer": 7138,
      "timeless": 7139,
      "aloof": 7140,
      "alto": 7141,
      "alarum": 7142,
      "##oyal": 7143,
      "hears": 7144,
      "##osterous": 7145,
      "abst": 7146,
      "abod": 7147,
      "exh": 7148,
      "exclaim": 7149,
      "exact": 7150,
      "earl": 7151,
      "earldom": 7152,
      "flame": 7153,
      "flint": 7154,
      "flayed": 7155,
      "looker": 7156,
      "quake": 7157,
      "quaint": 7158,
      "##erving": 7159,
      "##ervation": 7160,
      "warning": 7161,
      "slack": 7162,
      "##izel": 7163,
      "##izab": 7164,
      "seed": 7165,
      "crest": 7166,
      "error": 7167,
      "##quet": 7168,
      "strump": 7169,
      "foil": 7170,
      "prays": 7171,
      "perf": 7172,
      "permit": 7173,
      "sweets": 7174,
      "wrangling": 7175,
      "prec": 7176,
      "preced": 7177,
      "scour": 7178,
      "scru": 7179,
      "headed": 7180,
      "headstr": 7181,
      "nobleman": 7182,
      "##aws": 7183,
      "wayward": 7184,
      "Any": 7185,
      "queens": 7186,
      "##abb": 7187,
      "apply": 7188,
      "appell": 7189,
      "appoint": 7190,
      "grub": 7191,
      "##rieve": 7192,
      "contri": 7193,
      "Franc": 7194,
      "replied": 7195,
      "reproof": 7196,
      "repossess": 7197,
      "repetition": 7198,
      "preserved": 7199,
      "armed": 7200,
      "male": 7201,
      "begot": 7202,
      "levy": 7203,
      "levied": 7204,
      "longest": 7205,
      "afoot": 7206,
      "conspir": 7207,
      "consorted": 7208,
      "consumed": 7209,
      "lieutenant": 7210,
      "restored": 7211,
      "restraint": 7212,
      "crowned": 7213,
      "merciful": 7214,
      "merriment": 7215,
      "composition": 7216,
      "resort": 7217,
      "rescue": 7218,
      "keeping": 7219,
      "tried": 7220,
      "Prof": 7221,
      "slee": 7222,
      "eloqu": 7223,
      "farm": 7224,
      "farthest": 7225,
      "##ailing": 7226,
      "follies": 7227,
      "higher": 7228,
      "highway": 7229,
      "backward": 7230,
      "glories": 7231,
      "gloves": 7232,
      "peaceful": 7233,
      "counted": 7234,
      "banquet": 7235,
      "confer": 7236,
      "confines": 7237,
      "confusion": 7238,
      "elsewh": 7239,
      "needle": 7240,
      "needless": 7241,
      "ladyship": 7242,
      "husbands": 7243,
      "breathes": 7244,
      "##oubt": 7245,
      "showers": 7246,
      "bodes": 7247,
      "impart": 7248,
      "impud": 7249,
      "impression": 7250,
      "impediment": 7251,
      "indiff": 7252,
      "indirect": 7253,
      "mistaking": 7254,
      "pardons": 7255,
      "coz": 7256,
      "coal": 7257,
      "coals": 7258,
      "lightly": 7259,
      "lightness": 7260,
      "natures": 7261,
      "device": 7262,
      "underne": 7263,
      "undergo": 7264,
      "curious": 7265,
      "killed": 7266,
      "happier": 7267,
      "worthily": 7268,
      "misd": 7269,
      "obtain": 7270,
      "cousins": 7271,
      "braved": 7272,
      "following": 7273,
      "sunshine": 7274,
      "witted": 7275,
      "Herald": 7276,
      "Hercules": 7277,
      "turned": 7278,
      "comforts": 7279,
      "comfortable": 7280,
      "sleeps": 7281,
      "sleepy": 7282,
      "forgiveness": 7283,
      "##itories": 7284,
      "disposed": 7285,
      "welcomes": 7286,
      "falsely": 7287,
      "villany": 7288,
      "fights": 7289,
      "fighting": 7290,
      "matters": 7291,
      "prisoners": 7292,
      "attent": 7293,
      "entire": 7294,
      "entrails": 7295,
      "assault": 7296,
      "denial": 7297,
      "commanding": 7298,
      "dreamt": 7299,
      "##enerate": 7300,
      "Twill": 7301,
      "Twenty": 7302,
      "getting": 7303,
      "fouler": 7304,
      "sisterhood": 7305,
      "##kenbury": 7306,
      "breaking": 7307,
      "##versy": 7308,
      "footman": 7309,
      "Commit": 7310,
      "awry": 7311,
      "built": 7312,
      "widows": 7313,
      "suppose": 7314,
      "suppli": 7315,
      "discords": 7316,
      "requires": 7317,
      "required": 7318,
      "parent": 7319,
      "paradise": 7320,
      "##azon": 7321,
      "beating": 7322,
      "woeful": 7323,
      "tenderly": 7324,
      "value": 7325,
      "mete": 7326,
      "coldly": 7327,
      "deeper": 7328,
      "deeply": 7329,
      "hardy": 7330,
      "blessings": 7331,
      "returned": 7332,
      "capital": 7333,
      "caparison": 7334,
      "Again": 7335,
      "silken": 7336,
      "suffice": 7337,
      "plucks": 7338,
      "jocund": 7339,
      "airy": 7340,
      "pastime": 7341,
      "quicken": 7342,
      "fasting": 7343,
      "strongly": 7344,
      "delivered": 7345,
      "##xton": 7346,
      "nobler": 7347,
      "inconstant": 7348,
      "infring": 7349,
      "infirm": 7350,
      "issued": 7351,
      "profan": 7352,
      "profits": 7353,
      "divide": 7354,
      "divided": 7355,
      "divines": 7356,
      "division": 7357,
      "mocking": 7358,
      "mockery": 7359,
      "distinguish": 7360,
      "minstrel": 7361,
      "terrible": 7362,
      "posterity": 7363,
      "resolute": 7364,
      "tribute": 7365,
      "counsels": 7366,
      "biting": 7367,
      "##voke": 7368,
      "harmless": 7369,
      "draws": 7370,
      "actor": 7371,
      "skin": 7372,
      "skulls": 7373,
      "signs": 7374,
      "stirs": 7375,
      "stirring": 7376,
      "regiment": 7377,
      "cheerfully": 7378,
      "events": 7379,
      "privy": 7380,
      "appeared": 7381,
      "##overn": 7382,
      "poisonous": 7383,
      "barr": 7384,
      "malign": 7385,
      "interchange": 7386,
      "embra": 7387,
      "embraced": 7388,
      "Arm": 7389,
      "Arise": 7390,
      "direful": 7391,
      "pays": 7392,
      "tax": 7393,
      "succor": 7394,
      "Pres": 7395,
      "Proud": 7396,
      "bleeds": 7397,
      "darken": 7398,
      "wisest": 7399,
      "##gnant": 7400,
      "closely": 7401,
      "created": 7402,
      "creatures": 7403,
      "owl": 7404,
      "penny": 7405,
      "possessed": 7406,
      "chamberlain": 7407,
      "duc": 7408,
      "hurried": 7409,
      "scarlet": 7410,
      "Percy": 7411,
      "cowardice": 7412,
      "limits": 7413,
      "palm": 7414,
      "rebel": 7415,
      "rebuke": 7416,
      "scorns": 7417,
      "triumphs": 7418,
      "witnesses": 7419,
      "clean": 7420,
      "changes": 7421,
      "Christopher": 7422,
      "Gregory": 7423,
      "caused": 7424,
      "fills": 7425,
      "hideous": 7426,
      "beastly": 7427,
      "insulting": 7428,
      "Among": 7429,
      "Amongst": 7430,
      "calumny": 7431,
      "##standing": 7432,
      "governor": 7433,
      "extremest": 7434,
      "feat": 7435,
      "scholar": 7436,
      "wenches": 7437,
      "injuries": 7438,
      "injurious": 7439,
      "truer": 7440,
      "admir": 7441,
      "admit": 7442,
      "admitted": 7443,
      "pursued": 7444,
      "Belike": 7445,
      "Priam": 7446,
      "street": 7447,
      "stream": 7448,
      "solely": 7449,
      "Apothecary": 7450,
      "mutiny": 7451,
      "##holds": 7452,
      "drunkard": 7453,
      "Enough": 7454,
      "famish": 7455,
      "lustful": 7456,
      "threats": 7457,
      "safer": 7458,
      "Consider": 7459,
      "mounting": 7460,
      "debase": 7461,
      "contrad": 7462,
      "remedies": 7463,
      "understanding": 7464,
      "schoolmaster": 7465,
      "Neighb": 7466,
      "gentler": 7467,
      "hunger": 7468,
      "rocks": 7469,
      "starve": 7470,
      "demands": 7471,
      "greetings": 7472,
      "scarcely": 7473,
      "dwells": 7474,
      "faintly": 7475,
      "rages": 7476,
      "raging": 7477,
      "ragged": 7478,
      "verd": 7479,
      "throats": 7480,
      "degrees": 7481,
      "unborn": 7482,
      "miseries": 7483,
      "conditions": 7484,
      "Elizab": 7485,
      "firmly": 7486,
      "holid": 7487,
      "befal": 7488,
      "befits": 7489,
      "inclination": 7490,
      "fruitful": 7491,
      "unlawful": 7492,
      "intended": 7493,
      "utterance": 7494,
      "Lovel": 7495,
      "Meantime": 7496,
      "bootless": 7497,
      "feeding": 7498,
      "lengthen": 7499,
      "##whelm": 7500,
      "stooping": 7501,
      "relig": 7502,
      "necessary": 7503,
      "argos": 7504,
      "importune": 7505,
      "Left": 7506,
      "achieve": 7507,
      "achieved": 7508,
      "create": 7509,
      "fathom": 7510,
      "gait": 7511,
      "gaol": 7512,
      "gaoler": 7513,
      "jealousies": 7514,
      "roundly": 7515,
      "##ienced": 7516,
      "##oebus": 7517,
      "##actors": 7518,
      "shrink": 7519,
      "##idden": 7520,
      "decay": 7521,
      "troublous": 7522,
      "frighted": 7523,
      "immediate": 7524,
      "treachery": 7525,
      "assistance": 7526,
      "delights": 7527,
      "Imp": 7528,
      "rascals": 7529,
      "beware": 7530,
      "shaped": 7531,
      "forsake": 7532,
      "ambition": 7533,
      "persuasion": 7534,
      "Brakenbury": 7535,
      "wolves": 7536,
      "weighty": 7537,
      "pronounced": 7538,
      "penitence": 7539,
      "physician": 7540,
      "solemnity": 7541,
      "Calais": 7542,
      "Phaeth": 7543,
      "Phoebus": 7544,
      "Repent": 7545,
      "baseness": 7546,
      "millions": 7547,
      "syll": 7548,
      "songs": 7549,
      "wonders": 7550,
      "rewards": 7551,
      "combat": 7552,
      "trembles": 7553,
      "publicly": 7554,
      "Patrician": 7555,
      "Seize": 7556,
      "difference": 7557,
      "merely": 7558,
      "magic": 7559,
      "testimony": 7560,
      "hazel": 7561,
      "choleric": 7562,
      "knightly": 7563,
      "apprehend": 7564,
      "apprehension": 7565,
      "greyh": 7566,
      "Small": 7567,
      "Smile": 7568,
      "lungs": 7569,
      "puppet": 7570,
      "ribb": 7571,
      "##heard": 7572,
      "thorns": 7573,
      "ashore": 7574,
      "chastity": 7575,
      "chastisement": 7576,
      "perjury": 7577,
      "brawl": 7578,
      "brawling": 7579,
      "witchcraft": 7580,
      "circumstances": 7581,
      "Condemn": 7582,
      "Sixth": 7583,
      "Tarqu": 7584,
      "Write": 7585,
      "bait": 7586,
      "function": 7587,
      "salute": 7588,
      "locks": 7589,
      "receives": 7590,
      "manifest": 7591,
      "Forgive": 7592,
      "discharged": 7593,
      "climb": 7594,
      "beguile": 7595,
      "accomplish": 7596,
      "coffin": 7597,
      "council": 7598,
      "captive": 7599,
      "distressed": 7600,
      "Antiates": 7601,
      "Dispatch": 7602,
      "Florizel": 7603,
      "Affection": 7604,
      "Cleomenes": 7605,
      "Knock": 7606,
      "bribe": 7607,
      "baggage": 7608,
      "horror": 7609,
      "idly": 7610,
      "napkin": 7611,
      "volume": 7612,
      "inherit": 7613,
      "wheels": 7614,
      "superfl": 7615,
      "split": 7616,
      "scolding": 7617,
      "impatience": 7618,
      "impatient": 7619,
      "dragon": 7620,
      "disguised": 7621,
      "Between": 7622,
      "Betwixt": 7623,
      "Greece": 7624,
      "Mercy": 7625,
      "diadem": 7626,
      "dainty": 7627,
      "homage": 7628,
      "porter": 7629,
      "thwack": 7630,
      "haughty": 7631,
      "controversy": 7632,
      "bankrupt": 7633,
      "rode": 7634,
      "transported": 7635,
      "Emilia": 7636,
      "Evermore": 7637,
      "Touching": 7638,
      "centre": 7639,
      "lecture": 7640,
      "mourning": 7641,
      "picture": 7642,
      "saucy": 7643,
      "vassal": 7644,
      "shriek": 7645,
      "whistle": 7646,
      "society": 7647,
      "shelter": 7648,
      "unfeigned": 7649,
      "imperial": 7650,
      "merrily": 7651,
      "smiling": 7652,
      "inferior": 7653,
      "divorce": 7654,
      "Welshmen": 7655,
      "expedition": 7656,
      "insolence": 7657,
      "concluded": 7658,
      "supreme": 7659,
      "reckoning": 7660,
      "Open": 7661,
      "Overdone": 7662,
      "cordial": 7663,
      "candle": 7664,
      "derived": 7665,
      "powder": 7666,
      "pestilence": 7667,
      "pupil": 7668,
      "rumour": 7669,
      "rancour": 7670,
      "sands": 7671,
      "ugly": 7672,
      "congeal": 7673,
      "amazement": 7674,
      "canopy": 7675,
      "plaints": 7676,
      "disobed": 7677,
      "nightingale": 7678,
      "harlot": 7679,
      "territories": 7680,
      "Advance": 7681,
      "medicine": 7682,
      "puissant": 7683,
      "advertised": 7684,
      "acknowledge": 7685,
      "BONA": 7686,
      "Beshrew": 7687,
      "Doricles": 7688,
      "EMILIA": 7689,
      "Grandam": 7690,
      "Lodowick": 7691,
      "NATHANIEL": 7692,
      "PAGE": 7693,
      "Renown": 7694,
      "SURREY": 7695,
      "Urge": 7696,
      "bachelor": 7697,
      "cuckold": 7698,
      "festival": 7699,
      "female": 7700,
      "louder": 7701,
      "nymph": 7702,
      "perempt": 7703,
      "raiment": 7704,
      "rheum": 7705,
      "sinew": 7706,
      "vineyard": 7707,
      "western": 7708,
      "##specially": 7709,
      "##iquity": 7710,
      "##worth": 7711,
      "##aniel": 7712,
      "notwithstanding": 7713,
      "prerogative": 7714,
      "solicit": 7715,
      "aspiring": 7716,
      "knighthood": 7717,
      "altogether": 7718,
      "strumpet": 7719,
      "precedent": 7720,
      "headstrong": 7721,
      "elsewhere": 7722,
      "indifferent": 7723,
      "underneath": 7724,
      "Elizabeth": 7725,
      "Phaethon": 7726,
      "peremptory": 7727,
      "'!": 7728,
      "'--": 7729,
      "BL": 7730,
      "Bea": 7731,
      "Base": 7732,
      "Bret": 7733,
      "Brist": 7734,
      "Cut": 7735,
      "Cro": 7736,
      "Cot": 7737,
      "Care": 7738,
      "Carl": 7739,
      "Dre": 7740,
      "Dion": 7741,
      "Dight": 7742,
      "Die": 7743,
      "Dick": 7744,
      "Deep": 7745,
      "Def": 7746,
      "Dukes": 7747,
      "Ele": 7748,
      "Eur": 7749,
      "EAR": 7750,
      "Exton": 7751,
      "Fer": 7752,
      "Far": 7753,
      "Fine": 7754,
      "Found": 7755,
      "FRAN": 7756,
      "Fool": 7757,
      "Fellow": 7758,
      "Gall": 7759,
      "Given": 7760,
      "Girl": 7761,
      "Hard": 7762,
      "Hap": 7763,
      "Hallow": 7764,
      "Half": 7765,
      "Jud": 7766,
      "Jule": 7767,
      "James": 7768,
      "Lat": 7769,
      "Lad": 7770,
      "Less": 7771,
      "Last": 7772,
      "Luke": 7773,
      "Lud": 7774,
      "Little": 7775,
      "Lift": 7776,
      "Lives": 7777,
      "Meet": 7778,
      "Mab": 7779,
      "Mount": 7780,
      "Merely": 7781,
      "Nath": 7782,
      "Night": 7783,
      "Nine": 7784,
      "Opp": 7785,
      "Pil": 7786,
      "Pale": 7787,
      "Rus": 7788,
      "Rag": 7789,
      "Rise": 7790,
      "Ref": 7791,
      "Ross": 7792,
      "Sa": 7793,
      "SA": 7794,
      "Sent": 7795,
      "Sad": 7796,
      "Sel": 7797,
      "Soul": 7798,
      "Sorrow": 7799,
      "Seal": 7800,
      "Sland": 7801,
      "South": 7802,
      "Sleep": 7803,
      "Silence": 7804,
      "Ti": 7805,
      "Tend": 7806,
      "Tong": 7807,
      "Takes": 7808,
      "Trem": 7809,
      "Uly": 7810,
      "Var": 7811,
      "Went": 7812,
      "Witness": 7813,
      "Yonder": 7814,
      "au": 7815,
      "aust": 7816,
      "aery": 7817,
      "aqu": 7818,
      "bust": 7819,
      "bate": 7820,
      "bau": 7821,
      "bind": 7822,
      "bide": 7823,
      "batter": 7824,
      "bier": 7825,
      "bale": 7826,
      "bash": 7827,
      "bills": 7828,
      "borough": 7829,
      "cy": 7830,
      "ced": 7831,
      "cot": 7832,
      "cuff": 7833,
      "cels": 7834,
      "certaint": 7835,
      "dy": 7836,
      "dart": 7837,
      "dun": 7838,
      "dial": 7839,
      "divers": 7840,
      "dastard": 7841,
      "dances": 7842,
      "duteous": 7843,
      "eg": 7844,
      "ew": 7845,
      "eve": 7846,
      "egg": 7847,
      "especially": 7848,
      "fen": 7849,
      "fed": 7850,
      "fut": 7851,
      "fence": 7852,
      "fate": 7853,
      "file": 7854,
      "fester": 7855,
      "fitting": 7856,
      "fickle": 7857,
      "gay": 7858,
      "gle": 7859,
      "gear": 7860,
      "gild": 7861,
      "gird": 7862,
      "gilt": 7863,
      "gorge": 7864,
      "ginger": 7865,
      "hen": 7866,
      "hic": 7867,
      "hound": 7868,
      "hint": 7869,
      "hoot": 7870,
      "hoop": 7871,
      "hounds": 7872,
      "hills": 7873,
      "ib": 7874,
      "jar": 7875,
      "ken": 7876,
      "keen": 7877,
      "kern": 7878,
      "kitch": 7879,
      "lain": 7880,
      "lame": 7881,
      "lass": 7882,
      "laughter": 7883,
      "laz": 7884,
      "lac": 7885,
      "litter": 7886,
      "mow": 7887,
      "ming": 7888,
      "math": 7889,
      "mot": 7890,
      "mart": 7891,
      "map": 7892,
      "mass": 7893,
      "mute": 7894,
      "muse": 7895,
      "nin": 7896,
      "nut": 7897,
      "nurs": 7898,
      "nerves": 7899,
      "nuns": 7900,
      "niece": 7901,
      "ox": 7902,
      "ost": 7903,
      "oce": 7904,
      "pi": 7905,
      "pir": 7906,
      "pul": 7907,
      "pith": 7908,
      "pel": 7909,
      "pens": 7910,
      "park": 7911,
      "potion": 7912,
      "pines": 7913,
      "portion": 7914,
      "peasant": 7915,
      "rar": 7916,
      "rent": 7917,
      "ree": 7918,
      "rood": 7919,
      "rings": 7920,
      "raw": 7921,
      "rud": 7922,
      "reel": 7923,
      "rates": 7924,
      "rapt": 7925,
      "rope": 7926,
      "raze": 7927,
      "rhy": 7928,
      "rarest": 7929,
      "sly": 7930,
      "sem": 7931,
      "surn": 7932,
      "sainted": 7933,
      "tur": 7934,
      "tum": 7935,
      "tire": 7936,
      "tatter": 7937,
      "tunes": 7938,
      "tides": 7939,
      "tales": 7940,
      "tumbling": 7941,
      "teeming": 7942,
      "vest": 7943,
      "vap": 7944,
      "vio": 7945,
      "vip": 7946,
      "vices": 7947,
      "vita": 7948,
      "wra": 7949,
      "ware": 7950,
      "walks": 7951,
      "yew": 7952,
      "yellow": 7953,
      "##roop": 7954,
      "##ech": 7955,
      "##equ": 7956,
      "##eathe": 7957,
      "##cas": 7958,
      "##cock": 7959,
      "##cued": 7960,
      "##ciled": 7961,
      "##por": 7962,
      "##pse": 7963,
      "##pter": 7964,
      "##peak": 7965,
      "##take": 7966,
      "##ties": 7967,
      "##tsey": 7968,
      "##sia": 7969,
      "##sby": 7970,
      "##iable": 7971,
      "##iction": 7972,
      "##oa": 7973,
      "##oz": 7974,
      "##ois": 7975,
      "##oan": 7976,
      "##oking": 7977,
      "##ogue": 7978,
      "##fes": 7979,
      "##fly": 7980,
      "##fix": 7981,
      "##fellow": 7982,
      "##uity": 7983,
      "##ugs": 7984,
      "##hur": 7985,
      "##hill": 7986,
      "##hire": 7987,
      "##hrew": 7988,
      "##dur": 7989,
      "##lest": 7990,
      "##lorn": 7991,
      "##lings": 7992,
      "##lause": 7993,
      "##loyal": 7994,
      "##min": 7995,
      "##met": 7996,
      "##mary": 7997,
      "##maid": 7998,
      "##mony": 7999,
      "##mission": 8000,
      "##minate": 8001,
      "##ky": 8002,
      "##aft": 8003,
      "##acious": 8004,
      "##avery": 8005,
      "##ainder": 8006,
      "##vion": 8007,
      "##vity": 8008,
      "##vised": 8009,
      "##gy": 8010,
      "##gom": 8011,
      "##gain": 8012,
      "##gress": 8013,
      "##water": 8014,
      "##bon": 8015,
      "##bast": 8016,
      "##boy": 8017,
      "##bham": 8018,
      "##body": 8019,
      "##jud": 8020,
      "##ISC": 8021,
      "##UNT": 8022,
      "##CISC": 8023,
      "##zwater": 8024,
      "threw": 8025,
      "thorough": 8026,
      "##eres": 8027,
      "##erun": 8028,
      "##erman": 8029,
      "##eria": 8030,
      "##ndon": 8031,
      "##nders": 8032,
      "##atri": 8033,
      "##atage": 8034,
      "##atory": 8035,
      "##atitude": 8036,
      "##atiate": 8037,
      "##inable": 8038,
      "##inite": 8039,
      "##inty": 8040,
      "##inions": 8041,
      "##arated": 8042,
      "##enz": 8043,
      "##isle": 8044,
      "##thren": 8045,
      "toys": 8046,
      "##inged": 8047,
      "##omfort": 8048,
      "##rep": 8049,
      "##reement": 8050,
      "##stood": 8051,
      "beards": 8052,
      "nov": 8053,
      "Thither": 8054,
      "##ceives": 8055,
      "hab": 8056,
      "haven": 8057,
      "##uto": 8058,
      "##utus": 8059,
      "##lets": 8060,
      "##lebr": 8061,
      "##lehill": 8062,
      "##cho": 8063,
      "##chard": 8064,
      "##chery": 8065,
      "shar": 8066,
      "shock": 8067,
      "shoot": 8068,
      "shamed": 8069,
      "shipp": 8070,
      "shouts": 8071,
      "shores": 8072,
      "##eteen": 8073,
      "wheres": 8074,
      "meas": 8075,
      "##urr": 8076,
      "##urity": 8077,
      "##urbs": 8078,
      "##imon": 8079,
      "##iminal": 8080,
      "forms": 8081,
      "foref": 8082,
      "forlorn": 8083,
      "forerun": 8084,
      "##itan": 8085,
      "##oothing": 8086,
      "Whence": 8087,
      "White": 8088,
      "Whoop": 8089,
      "sty": 8090,
      "start": 8091,
      "stage": 8092,
      "stuck": 8093,
      "stew": 8094,
      "stint": 8095,
      "steter": 8096,
      "stool": 8097,
      "starts": 8098,
      "stumbled": 8099,
      "web": 8100,
      "##ids": 8101,
      "##idge": 8102,
      "pry": 8103,
      "prol": 8104,
      "liver": 8105,
      "liars": 8106,
      "##aled": 8107,
      "##asci": 8108,
      "##asite": 8109,
      "##asph": 8110,
      "soar": 8111,
      "sober": 8112,
      "solace": 8113,
      "ascend": 8114,
      "##amine": 8115,
      "doit": 8116,
      "doings": 8117,
      "##rip": 8118,
      "##rian": 8119,
      "##ription": 8120,
      "##rawn": 8121,
      "##raign": 8122,
      "##arded": 8123,
      "##usc": 8124,
      "##using": 8125,
      "##usale": 8126,
      "##usual": 8127,
      "##uspicious": 8128,
      "##geon": 8129,
      "##geia": 8130,
      "##terate": 8131,
      "allay": 8132,
      "sues": 8133,
      "sulp": 8134,
      "Told": 8135,
      "Together": 8136,
      "ant": 8137,
      "angu": 8138,
      "reh": 8139,
      "rele": 8140,
      "revell": 8141,
      "spell": 8142,
      "spurn": 8143,
      "space": 8144,
      "##ellows": 8145,
      "chid": 8146,
      "chain": 8147,
      "chides": 8148,
      "chron": 8149,
      "chaff": 8150,
      "choke": 8151,
      "##asted": 8152,
      "##ille": 8153,
      "##ilip": 8154,
      "knell": 8155,
      "knack": 8156,
      "knavery": 8157,
      "##usters": 8158,
      "fresher": 8159,
      "##oused": 8160,
      "##cts": 8161,
      "##feminate": 8162,
      "##ulation": 8163,
      "upper": 8164,
      "goodman": 8165,
      "manly": 8166,
      "manacles": 8167,
      "mankind": 8168,
      "mangled": 8169,
      "atone": 8170,
      "##ending": 8171,
      "##endom": 8172,
      "cony": 8173,
      "convers": 8174,
      "convent": 8175,
      "fails": 8176,
      "fabric": 8177,
      "amity": 8178,
      "amended": 8179,
      "moans": 8180,
      "molehill": 8181,
      "blots": 8182,
      "blasph": 8183,
      "##ately": 8184,
      "##oln": 8185,
      "##vener": 8186,
      "goest": 8187,
      "##ershire": 8188,
      "Forrest": 8189,
      "sheath": 8190,
      "sheets": 8191,
      "therewith": 8192,
      "ordain": 8193,
      "ordin": 8194,
      "orchard": 8195,
      "trudge": 8196,
      "swim": 8197,
      "swine": 8198,
      "swif": 8199,
      "swoln": 8200,
      "usage": 8201,
      "##ican": 8202,
      "##icing": 8203,
      "##icide": 8204,
      "##icester": 8205,
      "##umn": 8206,
      "unity": 8207,
      "unman": 8208,
      "unqu": 8209,
      "unaw": 8210,
      "unlo": 8211,
      "unsc": 8212,
      "univers": 8213,
      "unusual": 8214,
      "##opted": 8215,
      "enroll": 8216,
      "enfranch": 8217,
      "enjoin": 8218,
      "##ematic": 8219,
      "##igation": 8220,
      "plent": 8221,
      "##cible": 8222,
      "##cipl": 8223,
      "agony": 8224,
      "agreement": 8225,
      "##areth": 8226,
      "Helen": 8227,
      "sails": 8228,
      "##eaded": 8229,
      "##akers": 8230,
      "##ecess": 8231,
      "somebody": 8232,
      "##aph": 8233,
      "disper": 8234,
      "dislike": 8235,
      "disloyal": 8236,
      "discipl": 8237,
      "twig": 8238,
      "broils": 8239,
      "outst": 8240,
      "##eph": 8241,
      "howl": 8242,
      "##iod": 8243,
      "##ffer": 8244,
      "##ffic": 8245,
      "daylight": 8246,
      "handle": 8247,
      "handker": 8248,
      "prover": 8249,
      "produce": 8250,
      "proffer": 8251,
      "Withal": 8252,
      "bran": 8253,
      "brine": 8254,
      "brittle": 8255,
      "marqu": 8256,
      "Inf": 8257,
      "##acket": 8258,
      "hearth": 8259,
      "ability": 8260,
      "abuses": 8261,
      "external": 8262,
      "##agine": 8263,
      "##agate": 8264,
      "breach": 8265,
      "breech": 8266,
      "brethren": 8267,
      "flag": 8268,
      "fliers": 8269,
      "flinty": 8270,
      "tellus": 8271,
      "whereupon": 8272,
      "desir": 8273,
      "deserving": 8274,
      "##aved": 8275,
      "##avel": 8276,
      "wary": 8277,
      "articles": 8278,
      "article": 8279,
      "Mariner": 8280,
      "fairies": 8281,
      "##angled": 8282,
      "slide": 8283,
      "slanders": 8284,
      "fearless": 8285,
      "##izes": 8286,
      "sew": 8287,
      "sex": 8288,
      "cru": 8289,
      "crad": 8290,
      "crimes": 8291,
      "criminal": 8292,
      "greatly": 8293,
      "erp": 8294,
      "ersh": 8295,
      "erwhelm": 8296,
      "##quis": 8297,
      "##quent": 8298,
      "##quish": 8299,
      "##quaint": 8300,
      "##bering": 8301,
      "string": 8302,
      "strain": 8303,
      "stride": 8304,
      "stratage": 8305,
      "nightly": 8306,
      "##ildren": 8307,
      "clap": 8308,
      "club": 8309,
      "##ccess": 8310,
      "##ccustom": 8311,
      "Yourself": 8312,
      "partake": 8313,
      "partial": 8314,
      "##oughby": 8315,
      "calling": 8316,
      "adorn": 8317,
      "adder": 8318,
      "foaming": 8319,
      "##sses": 8320,
      "commit": 8321,
      "commod": 8322,
      "##ected": 8323,
      "perch": 8324,
      "perused": 8325,
      "perchance": 8326,
      "peradventure": 8327,
      "period": 8328,
      "##ipe": 8329,
      "sweeten": 8330,
      "pred": 8331,
      "pregnant": 8332,
      "scra": 8333,
      "scare": 8334,
      "scars": 8335,
      "scouts": 8336,
      "scaped": 8337,
      "##assad": 8338,
      "##uddy": 8339,
      "##abour": 8340,
      "##ablish": 8341,
      "applause": 8342,
      "contem": 8343,
      "repaid": 8344,
      "reprieve": 8345,
      "remiss": 8346,
      "remote": 8347,
      "##liction": 8348,
      "##livion": 8349,
      "presc": 8350,
      "presum": 8351,
      "begging": 8352,
      "##uckle": 8353,
      "leather": 8354,
      "longing": 8355,
      "poorest": 8356,
      "lively": 8357,
      "consort": 8358,
      "consume": 8359,
      "conserves": 8360,
      "intends": 8361,
      "Sirs": 8362,
      "mightily": 8363,
      "##attering": 8364,
      "resteth": 8365,
      "courts": 8366,
      "courses": 8367,
      "##iously": 8368,
      "compell": 8369,
      "complet": 8370,
      "Stir": 8371,
      "Stop": 8372,
      "Staff": 8373,
      "hoped": 8374,
      "hopeless": 8375,
      "peck": 8376,
      "drinks": 8377,
      "resp": 8378,
      "reserved": 8379,
      "residence": 8380,
      "##peror": 8381,
      "##peration": 8382,
      "Prodig": 8383,
      "slender": 8384,
      "##ieldy": 8385,
      "##ivity": 8386,
      "hourly": 8387,
      "endow": 8388,
      "endea": 8389,
      "purged": 8390,
      "thresh": 8391,
      "highest": 8392,
      "glister": 8393,
      "glove": 8394,
      "suborn": 8395,
      "subsc": 8396,
      "submission": 8397,
      "suburbs": 8398,
      "charms": 8399,
      "charters": 8400,
      "charitable": 8401,
      "Willoughby": 8402,
      "confined": 8403,
      "tongueless": 8404,
      "smack": 8405,
      "smiled": 8406,
      "smelt": 8407,
      "smoking": 8408,
      "hush": 8409,
      "needy": 8410,
      "seemed": 8411,
      "seemeth": 8412,
      "##retion": 8413,
      "treble": 8414,
      "rightly": 8415,
      "##herds": 8416,
      "breaths": 8417,
      "##cled": 8418,
      "##forward": 8419,
      "emulation": 8420,
      "##oubted": 8421,
      "boding": 8422,
      "serving": 8423,
      "handsome": 8424,
      "impose": 8425,
      "imposition": 8426,
      "mistook": 8427,
      "traged": 8428,
      "tragic": 8429,
      "traffic": 8430,
      "fortnight": 8431,
      "fortunate": 8432,
      "bringing": 8433,
      "beseem": 8434,
      "besiege": 8435,
      "beshrew": 8436,
      "passes": 8437,
      "royally": 8438,
      "cove": 8439,
      "coats": 8440,
      "helping": 8441,
      "justly": 8442,
      "justify": 8443,
      "road": 8444,
      "rogues": 8445,
      "wrongfully": 8446,
      "curbs": 8447,
      "killing": 8448,
      "happen": 8449,
      "shameless": 8450,
      "worthier": 8451,
      "worthiest": 8452,
      "misg": 8453,
      "##ruised": 8454,
      "obdur": 8455,
      "oblivion": 8456,
      "eyeb": 8457,
      "bragg": 8458,
      "brazen": 8459,
      "lesson": 8460,
      "fooling": 8461,
      "depth": 8462,
      "suns": 8463,
      "giant": 8464,
      "Alone": 8465,
      "Unh": 8466,
      "Unw": 8467,
      "Unb": 8468,
      "Unsh": 8469,
      "fellowship": 8470,
      "busied": 8471,
      "##jects": 8472,
      "belie": 8473,
      "pleaseth": 8474,
      "womanish": 8475,
      "turning": 8476,
      "talked": 8477,
      "pleasures": 8478,
      "humane": 8479,
      "overthrow": 8480,
      "overheard": 8481,
      "##rench": 8482,
      "strip": 8483,
      "stripes": 8484,
      "instead": 8485,
      "instance": 8486,
      "plays": 8487,
      "carrion": 8488,
      "wishes": 8489,
      "wishing": 8490,
      "welcom": 8491,
      "welkin": 8492,
      "Wouldst": 8493,
      "harms": 8494,
      "villan": 8495,
      "attach": 8496,
      "countryman": 8497,
      "sending": 8498,
      "threefold": 8499,
      "Trans": 8500,
      "doubted": 8501,
      "doubtless": 8502,
      "commandment": 8503,
      "winding": 8504,
      "greets": 8505,
      "senis": 8506,
      "enters": 8507,
      "entering": 8508,
      "enterpr": 8509,
      "deserts": 8510,
      "tending": 8511,
      "swearing": 8512,
      "kissing": 8513,
      "purposes": 8514,
      "crab": 8515,
      "spoils": 8516,
      "footing": 8517,
      "awe": 8518,
      "awful": 8519,
      "bub": 8520,
      "widower": 8521,
      "supple": 8522,
      "burial": 8523,
      "temperate": 8524,
      "discred": 8525,
      "discours": 8526,
      "discreet": 8527,
      "discretion": 8528,
      "requite": 8529,
      "requital": 8530,
      "lamp": 8531,
      "parle": 8532,
      "parch": 8533,
      "parlous": 8534,
      "parcel": 8535,
      "parasite": 8536,
      "Julius": 8537,
      "Spoke": 8538,
      "sinc": 8539,
      "wearing": 8540,
      "soonest": 8541,
      "warrants": 8542,
      "Church": 8543,
      "Charge": 8544,
      "Cheer": 8545,
      "Children": 8546,
      "Plain": 8547,
      "Pluck": 8548,
      "Place": 8549,
      "Plash": 8550,
      "colder": 8551,
      "harder": 8552,
      "nearer": 8553,
      "nearest": 8554,
      "saddle": 8555,
      "strait": 8556,
      "cheers": 8557,
      "chequ": 8558,
      "marrying": 8559,
      "returns": 8560,
      "capable": 8561,
      "throughly": 8562,
      "Montgom": 8563,
      "toucheth": 8564,
      "recount": 8565,
      "plucked": 8566,
      "strangely": 8567,
      "reasonable": 8568,
      "remembered": 8569,
      "asked": 8570,
      "visor": 8571,
      "wooers": 8572,
      "entreated": 8573,
      "Senators": 8574,
      "Seeking": 8575,
      "murdering": 8576,
      "##ixture": 8577,
      "Glad": 8578,
      "bats": 8579,
      "desired": 8580,
      "delivery": 8581,
      "deliverance": 8582,
      "dishes": 8583,
      "execut": 8584,
      "quarre": 8585,
      "quarters": 8586,
      "opening": 8587,
      "became": 8588,
      "incur": 8589,
      "incense": 8590,
      "incapable": 8591,
      "infancy": 8592,
      "infamy": 8593,
      "influ": 8594,
      "infinite": 8595,
      "issues": 8596,
      "speedily": 8597,
      "profound": 8598,
      "Become": 8599,
      "distrib": 8600,
      "distinct": 8601,
      "distemper": 8602,
      "strengthen": 8603,
      "security": 8604,
      "posts": 8605,
      "posterns": 8606,
      "bites": 8607,
      "##voc": 8608,
      "##voided": 8609,
      "shorten": 8610,
      "changeling": 8611,
      "flatterer": 8612,
      "leader": 8613,
      "titles": 8614,
      "watchful": 8615,
      "wondering": 8616,
      "##cession": 8617,
      "seeking": 8618,
      "garter": 8619,
      "garment": 8620,
      "garlic": 8621,
      "sickly": 8622,
      "waving": 8623,
      "acting": 8624,
      "skins": 8625,
      "signories": 8626,
      "wasted": 8627,
      "stirru": 8628,
      "ordering": 8629,
      "orderly": 8630,
      "clouded": 8631,
      "praised": 8632,
      "region": 8633,
      "regia": 8634,
      "regreet": 8635,
      "cheerful": 8636,
      "evident": 8637,
      "fitter": 8638,
      "veh": 8639,
      "preparation": 8640,
      "preposterous": 8641,
      "appearing": 8642,
      "LORDS": 8643,
      "dropp": 8644,
      "##voury": 8645,
      "speeches": 8646,
      "speechless": 8647,
      "expost": 8648,
      "consuls": 8649,
      "barb": 8650,
      "bargain": 8651,
      "fourth": 8652,
      "malicious": 8653,
      "thrift": 8654,
      "interest": 8655,
      "intercept": 8656,
      "interchang": 8657,
      "intercession": 8658,
      "liberties": 8659,
      "soften": 8660,
      "softly": 8661,
      "moveables": 8662,
      "beginning": 8663,
      "consented": 8664,
      "feasting": 8665,
      "grove": 8666,
      "frowning": 8667,
      "worships": 8668,
      "worshipful": 8669,
      "encomp": 8670,
      "encourage": 8671,
      "Abbot": 8672,
      "Abhors": 8673,
      "Princes": 8674,
      "briefly": 8675,
      "daring": 8676,
      "darkly": 8677,
      "establish": 8678,
      "gotten": 8679,
      "victorious": 8680,
      "apothecary": 8681,
      "creation": 8682,
      "penury": 8683,
      "summon": 8684,
      "summers": 8685,
      "complices": 8686,
      "respects": 8687,
      "visiting": 8688,
      "dug": 8689,
      "violate": 8690,
      "##verns": 8691,
      "bawdy": 8692,
      "Perchance": 8693,
      "eating": 8694,
      "limb": 8695,
      "opposed": 8696,
      "pals": 8697,
      "##anched": 8698,
      "favourable": 8699,
      "Standing": 8700,
      "patiently": 8701,
      "lamentations": 8702,
      "Blood": 8703,
      "Blind": 8704,
      "Black": 8705,
      "Blush": 8706,
      "cleft": 8707,
      "lacks": 8708,
      "laboured": 8709,
      "Thinking": 8710,
      "unwill": 8711,
      "Christendom": 8712,
      "caus": 8713,
      "fiends": 8714,
      "surm": 8715,
      "surly": 8716,
      "survey": 8717,
      "shepherds": 8718,
      "Adam": 8719,
      "Amazon": 8720,
      "Except": 8721,
      "births": 8722,
      "calf": 8723,
      "certainly": 8724,
      "painful": 8725,
      "walking": 8726,
      "wildly": 8727,
      "freshest": 8728,
      "proceeding": 8729,
      "beggarly": 8730,
      "instructions": 8731,
      "effeminate": 8732,
      "fees": 8733,
      "torments": 8734,
      "urging": 8735,
      "##gging": 8736,
      "offenders": 8737,
      "injured": 8738,
      "purses": 8739,
      "pursues": 8740,
      "meditation": 8741,
      "##strue": 8742,
      "streak": 8743,
      "dooms": 8744,
      "continued": 8745,
      "Englishman": 8746,
      "propheci": 8747,
      "April": 8748,
      "Mercury": 8749,
      "corner": 8750,
      "corners": 8751,
      "mutinies": 8752,
      "##phos": 8753,
      "stealing": 8754,
      "refuge": 8755,
      "swiftly": 8756,
      "uncertain": 8757,
      "Enforce": 8758,
      "Envir": 8759,
      "Revol": 8760,
      "##soe": 8761,
      "desperately": 8762,
      "severity": 8763,
      "drowning": 8764,
      "countermand": 8765,
      "counterpo": 8766,
      "effects": 8767,
      "authorities": 8768,
      "bastardy": 8769,
      "elders": 8770,
      "girls": 8771,
      "studies": 8772,
      "studied": 8773,
      "enjoys": 8774,
      "wretchedness": 8775,
      "doublet": 8776,
      "gentry": 8777,
      "##stantial": 8778,
      "staring": 8779,
      "starved": 8780,
      "butchers": 8781,
      "unfit": 8782,
      "Heavens": 8783,
      "Loved": 8784,
      "Sicinius": 8785,
      "customary": 8786,
      "dealing": 8787,
      "dwelling": 8788,
      "verge": 8789,
      "verity": 8790,
      "degenerate": 8791,
      "added": 8792,
      "privately": 8793,
      "wagon": 8794,
      "wealthy": 8795,
      "proofs": 8796,
      "arrival": 8797,
      "Showing": 8798,
      "Meaning": 8799,
      "edict": 8800,
      "election": 8801,
      "elements": 8802,
      "lengthens": 8803,
      "ripen": 8804,
      "stabbed": 8805,
      "relation": 8806,
      "relieve": 8807,
      "necessities": 8808,
      "argument": 8809,
      "arguments": 8810,
      "prevails": 8811,
      "considering": 8812,
      "discovery": 8813,
      "profession": 8814,
      "embracements": 8815,
      "innocents": 8816,
      "punishment": 8817,
      "aches": 8818,
      "stole": 8819,
      "presses": 8820,
      "decree": 8821,
      "decrees": 8822,
      "troubles": 8823,
      "plotted": 8824,
      "sailors": 8825,
      "clothe": 8826,
      "approaches": 8827,
      "Imagine": 8828,
      "Rescue": 8829,
      "ballads": 8830,
      "detested": 8831,
      "fishes": 8832,
      "bewray": 8833,
      "bewitch": 8834,
      "helms": 8835,
      "shapen": 8836,
      "forsook": 8837,
      "sprites": 8838,
      "ambush": 8839,
      "ambassad": 8840,
      "heaviness": 8841,
      "heavily": 8842,
      "persuaded": 8843,
      "expressly": 8844,
      "Brave": 8845,
      "Brandon": 8846,
      "bandy": 8847,
      "censured": 8848,
      "fashions": 8849,
      "vanish": 8850,
      "vanquish": 8851,
      "bonds": 8852,
      "bondage": 8853,
      "apparell": 8854,
      "leanness": 8855,
      "affected": 8856,
      "accusations": 8857,
      "Happily": 8858,
      "vexation": 8859,
      "physicians": 8860,
      "petitions": 8861,
      "Bearing": 8862,
      "Philip": 8863,
      "Repair": 8864,
      "basil": 8865,
      "feeble": 8866,
      "linen": 8867,
      "lineal": 8868,
      "rosemary": 8869,
      "symp": 8870,
      "separated": 8871,
      "Throng": 8872,
      "pricks": 8873,
      "alteration": 8874,
      "purchased": 8875,
      "temperance": 8876,
      "Brought": 8877,
      "Cobham": 8878,
      "Sebast": 8879,
      "Setting": 8880,
      "differ": 8881,
      "hostess": 8882,
      "shunn": 8883,
      "blocks": 8884,
      "ungentle": 8885,
      "placed": 8886,
      "quality": 8887,
      "qualities": 8888,
      "qualify": 8889,
      "companions": 8890,
      "directly": 8891,
      "Breathe": 8892,
      "driven": 8893,
      "digest": 8894,
      "jewels": 8895,
      "morsel": 8896,
      "thorny": 8897,
      "melting": 8898,
      "melted": 8899,
      "unjustly": 8900,
      "ensue": 8901,
      "enforcement": 8902,
      "clamorous": 8903,
      "robbers": 8904,
      "affliction": 8905,
      "Player": 8906,
      "waiting": 8907,
      "torches": 8908,
      "helmets": 8909,
      "Accursed": 8910,
      "Condition": 8911,
      "ceremony": 8912,
      "dimm": 8913,
      "mirror": 8914,
      "ports": 8915,
      "trod": 8916,
      "sticks": 8917,
      "receipt": 8918,
      "reckless": 8919,
      "manifested": 8920,
      "Forget": 8921,
      "##LISBURY": 8922,
      "floods": 8923,
      "beguiled": 8924,
      "complexions": 8925,
      "resisted": 8926,
      "accompany": 8927,
      "coffers": 8928,
      "displeased": 8929,
      "reconciled": 8930,
      "jointure": 8931,
      "complaints": 8932,
      "Afric": 8933,
      "Awake": 8934,
      "Awaked": 8935,
      "Knows": 8936,
      "Valent": 8937,
      "Valeria": 8938,
      "bonny": 8939,
      "bonnet": 8940,
      "buckle": 8941,
      "fifty": 8942,
      "horrible": 8943,
      "message": 8944,
      "spectacle": 8945,
      "engross": 8946,
      "gratis": 8947,
      "beggary": 8948,
      "belongs": 8949,
      "innocency": 8950,
      "disguise": 8951,
      "acquaintance": 8952,
      "Castle": 8953,
      "Delphos": 8954,
      "Guild": 8955,
      "homicide": 8956,
      "hatches": 8957,
      "lurk": 8958,
      "lurking": 8959,
      "nettle": 8960,
      "thirsty": 8961,
      "##attling": 8962,
      "deceased": 8963,
      "chafed": 8964,
      "blasts": 8965,
      "trencher": 8966,
      "trenches": 8967,
      "usurer": 8968,
      "control": 8969,
      "subdue": 8970,
      "subdued": 8971,
      "advancement": 8972,
      "beauties": 8973,
      "beautiful": 8974,
      "buzzard": 8975,
      "sacrifice": 8976,
      "transport": 8977,
      "Fitzwater": 8978,
      "Gramer": 8979,
      "Honest": 8980,
      "Quick": 8981,
      "Susan": 8982,
      "cropp": 8983,
      "finish": 8984,
      "fretting": 8985,
      "gnaw": 8986,
      "gamut": 8987,
      "painting": 8988,
      "rigour": 8989,
      "session": 8990,
      "##weigh": 8991,
      "ingrateful": 8992,
      "whipped": 8993,
      "spotted": 8994,
      "factious": 8995,
      "gossips": 8996,
      "unaccustom": 8997,
      "unavoided": 8998,
      "unthrift": 8999,
      "disinherit": 9000,
      "disinherited": 9001,
      "prodigy": 9002,
      "prodigal": 9003,
      "abundant": 9004,
      "abundance": 9005,
      "crutches": 9006,
      "adulteress": 9007,
      "drooping": 9008,
      "resemblance": 9009,
      "obsequies": 9010,
      "attorney": 9011,
      "attorneys": 9012,
      "detestable": 9013,
      "fantastic": 9014,
      "fantastical": 9015,
      "Persuade": 9016,
      "Persuades": 9017,
      "Acquaint": 9018,
      "Destroy": 9019,
      "Err": 9020,
      "Measure": 9021,
      "Pursuivant": 9022,
      "Simois": 9023,
      "Westmin": 9024,
      "bulk": 9025,
      "cushion": 9026,
      "filthy": 9027,
      "masqu": 9028,
      "timorous": 9029,
      "yesternight": 9030,
      "##tinent": 9031,
      "inhab": 9032,
      "invention": 9033,
      "stinking": 9034,
      "##asonable": 9035,
      "assembly": 9036,
      "doleful": 9037,
      "deformity": 9038,
      "butterfly": 9039,
      "annoy": 9040,
      "ancestors": 9041,
      "sparkling": 9042,
      "cannib": 9043,
      "uneven": 9044,
      "dissembling": 9045,
      "experienced": 9046,
      "everlasting": 9047,
      "clergy": 9048,
      "confederate": 9049,
      "afterwards": 9050,
      "obscured": 9051,
      "champion": 9052,
      "insinuate": 9053,
      "unprovided": 9054,
      "unluckily": 9055,
      "creeping": 9056,
      "lineaments": 9057,
      "magistrate": 9058,
      "surprised": 9059,
      "negligent": 9060,
      "momentary": 9061,
      "Chertsey": 9062,
      "Deny": 9063,
      "Hostess": 9064,
      "Irish": 9065,
      "Jerusale": 9066,
      "Juno": 9067,
      "Lammas": 9068,
      "Sigeia": 9069,
      "Turks": 9070,
      "celebr": 9071,
      "diligence": 9072,
      "drowsy": 9073,
      "fowl": 9074,
      "mantle": 9075,
      "ominous": 9076,
      "rabble": 9077,
      "tinker": 9078,
      "treaty": 9079,
      "vigour": 9080,
      "##pretation": 9081,
      "beetle": 9082,
      "inveterate": 9083,
      "fornication": 9084,
      "foretell": 9085,
      "stubborn": 9086,
      "dolour": 9087,
      "chivalry": 9088,
      "Forthwith": 9089,
      "orphans": 9090,
      "unpleasing": 9091,
      "Assist": 9092,
      "planet": 9093,
      "diseases": 9094,
      "exclaims": 9095,
      "precise": 9096,
      "scourge": 9097,
      "appellant": 9098,
      "Francis": 9099,
      "conspiracy": 9100,
      "eloquence": 9101,
      "suppliant": 9102,
      "infringe": 9103,
      "infirmity": 9104,
      "minstrels": 9105,
      "malignant": 9106,
      "embraces": 9107,
      "ducats": 9108,
      "Priami": 9109,
      "verdict": 9110,
      "argosy": 9111,
      "immediately": 9112,
      "Tarquin": 9113,
      "inheritance": 9114,
      "Renowned": 9115,
      "BLUNT": 9116,
      "Bristol": 9117,
      "Crosby": 9118,
      "Carlisle": 9119,
      "Dighton": 9120,
      "Europe": 9121,
      "EARL": 9122,
      "FRANCISC": 9123,
      "Hallowmas": 9124,
      "Judas": 9125,
      "Latin": 9126,
      "Ludlow": 9127,
      "Nathaniel": 9128,
      "Russia": 9129,
      "Ragoz": 9130,
      "SALISBURY": 9131,
      "Souls": 9132,
      "Tiber": 9133,
      "Tongue": 9134,
      "Ulysses": 9135,
      "aqua": 9136,
      "bustle": 9137,
      "bauble": 9138,
      "battery": 9139,
      "bashful": 9140,
      "celsa": 9141,
      "dyed": 9142,
      "future": 9143,
      "ibat": 9144,
      "kennel": 9145,
      "lazy": 9146,
      "lackey": 9147,
      "mathematic": 9148,
      "nineteen": 9149,
      "pikes": 9150,
      "rhyme": 9151,
      "surname": 9152,
      "turtle": 9153,
      "tumult": 9154,
      "vitae": 9155,
      "steterat": 9156,
      "##ascivious": 9157,
      "sulphur": 9158,
      "anguish": 9159,
      "blasphem": 9160,
      "ordinance": 9161,
      "swifter": 9162,
      "unawares": 9163,
      "disperse": 9164,
      "marquess": 9165,
      "stratagems": 9166,
      "commodity": 9167,
      "complete": 9168,
      "Stafford": 9169,
      "threshold": 9170,
      "subscribe": 9171,
      "obdurate": 9172,
      "enterprise": 9173,
      "Plashy": 9174,
      "Montgomery": 9175,
      "distinctly": 9176,
      "Abhorson": 9177,
      "prophecies": 9178,
      "sympath": 9179,
      "Sebastian": 9180,
      "Westminster": 9181,
      "Jerusalem": 9182,
      "Ragozine": 9183,
      "mathematics": 9184,
      "AL": 9185,
      "Aut": 9186,
      "Aim": 9187,
      "Alex": 9188,
      "Bu": 9189,
      "Bar": 9190,
      "Bay": 9191,
      "Bal": 9192,
      "Bore": 9193,
      "BER": 9194,
      "Bare": 9195,
      "Boot": 9196,
      "Brief": 9197,
      "CH": 9198,
      "Cour": 9199,
      "CARD": 9200,
      "Cull": 9201,
      "Cret": 9202,
      "Count": 9203,
      "Coun": 9204,
      "Certain": 9205,
      "Crown": 9206,
      "Cuts": 9207,
      "Di": 9208,
      "Day": 9209,
      "Done": 9210,
      "Dry": 9211,
      "Dig": 9212,
      "Dead": 9213,
      "Dull": 9214,
      "Daughter": 9215,
      "Doub": 9216,
      "Dash": 9217,
      "Drum": 9218,
      "During": 9219,
      "Drop": 9220,
      "Drawn": 9221,
      "Eth": 9222,
      "Emb": 9223,
      "Earth": 9224,
      "Echo": 9225,
      "Fe": 9226,
      "Fan": 9227,
      "Fre": 9228,
      "Fur": 9229,
      "Fam": 9230,
      "Fast": 9231,
      "Free": 9232,
      "Gon": 9233,
      "Gra": 9234,
      "Gro": 9235,
      "Gave": 9236,
      "Grief": 9237,
      "Hu": 9238,
      "Hy": 9239,
      "Hoo": 9240,
      "Hour": 9241,
      "House": 9242,
      "Hover": 9243,
      "Hann": 9244,
      "Hung": 9245,
      "Hacket": 9246,
      "Ing": 9247,
      "Iron": 9248,
      "Joy": 9249,
      "Jew": 9250,
      "Kill": 9251,
      "Kings": 9252,
      "Kiss": 9253,
      "Kates": 9254,
      "Killing": 9255,
      "Li": 9256,
      "LO": 9257,
      "Led": 9258,
      "Lim": 9259,
      "Land": 9260,
      "Light": 9261,
      "List": 9262,
      "Learn": 9263,
      "Laid": 9264,
      "Laugh": 9265,
      "Lament": 9266,
      "Lascivious": 9267,
      "ME": 9268,
      "Man": 9269,
      "Mir": 9270,
      "Mam": 9271,
      "Mond": 9272,
      "Mop": 9273,
      "Mort": 9274,
      "Matter": 9275,
      "Maid": 9276,
      "Mortal": 9277,
      "Need": 9278,
      "New": 9279,
      "Neap": 9280,
      "Nican": 9281,
      "Oly": 9282,
      "Pen": 9283,
      "Ped": 9284,
      "Pra": 9285,
      "Past": 9286,
      "Pot": 9287,
      "Pity": 9288,
      "Pass": 9289,
      "Pier": 9290,
      "Pret": 9291,
      "Pub": 9292,
      "Pitch": 9293,
      "Peer": 9294,
      "Quit": 9295,
      "Rain": 9296,
      "Rec": 9297,
      "Rage": 9298,
      "Reas": 9299,
      "Sn": 9300,
      "Sl": 9301,
      "Sk": 9302,
      "Sed": 9303,
      "Sea": 9304,
      "Sum": 9305,
      "Sith": 9306,
      "Sure": 9307,
      "Sister": 9308,
      "Sorry": 9309,
      "Sitting": 9310,
      "Tor": 9311,
      "Tro": 9312,
      "Tear": 9313,
      "Tick": 9314,
[...]
